{"<|endoftext|>":0,"!":1,"\"":2,"#":3,"$":4,"%":5,"&":6,"'":7,"(":8,")":9,"*":10,"+":11,",":12,"-":13,".":14,"/":15,"0":16,"1":17,"2":18,"3":19,"4":20,"5":21,"6":22,"7":23,"8":24,"9":25,":":26,";":27,"<":28,"=":29,">":30,"?":31,"@":32,"A":33,"B":34,"C":35,"D":36,"E":37,"F":38,"G":39,"H":40,"I":41,"J":42,"K":43,"L":44,"M":45,"N":46,"O":47,"P":48,"Q":49,"R":50,"S":51,"T":52,"U":53,"V":54,"W":55,"X":56,"Y":57,"Z":58,"[":59,"\\":60,"]":61,"^":62,"_":63,"`":64,"a":65,"b":66,"c":67,"d":68,"e":69,"f":70,"g":71,"h":72,"i":73,"j":74,"k":75,"l":76,"m":77,"n":78,"o":79,"p":80,"q":81,"r":82,"s":83,"t":84,"u":85,"v":86,"w":87,"x":88,"y":89,"z":90,"{":91,"|":92,"}":93,"~":94,"¡":95,"¢":96,"£":97,"¤":98,"¥":99,"¦":100,"§":101,"¨":102,"©":103,"ª":104,"«":105,"¬":106,"®":107,"¯":108,"°":109,"±":110,"²":111,"³":112,"´":113,"µ":114,"¶":115,"·":116,"¸":117,"¹":118,"º":119,"»":120,"¼":121,"½":122,"¾":123,"¿":124,"À":125,"Á":126,"Â":127,"Ã":128,"Ä":129,"Å":130,"Æ":131,"Ç":132,"È":133,"É":134,"Ê":135,"Ë":136,"Ì":137,"Í":138,"Î":139,"Ï":140,"Ð":141,"Ñ":142,"Ò":143,"Ó":144,"Ô":145,"Õ":146,"Ö":147,"×":148,"Ø":149,"Ù":150,"Ú":151,"Û":152,"Ü":153,"Ý":154,"Þ":155,"ß":156,"à":157,"á":158,"â":159,"ã":160,"ä":161,"å":162,"æ":163,"ç":164,"è":165,"é":166,"ê":167,"ë":168,"ì":169,"í":170,"î":171,"ï":172,"ð":173,"ñ":174,"ò":175,"ó":176,"ô":177,"õ":178,"ö":179,"÷":180,"ø":181,"ù":182,"ú":183,"û":184,"ü":185,"ý":186,"þ":187,"ÿ":188,"Ā":189,"ā":190,"Ă":191,"ă":192,"Ą":193,"ą":194,"Ć":195,"ć":196,"Ĉ":197,"ĉ":198,"Ċ":199,"ċ":200,"Č":201,"č":202,"Ď":203,"ď":204,"Đ":205,"đ":206,"Ē":207,"ē":208,"Ĕ":209,"ĕ":210,"Ė":211,"ė":212,"Ę":213,"ę":214,"Ě":215,"ě":216,"Ĝ":217,"ĝ":218,"Ğ":219,"ğ":220,"Ġ":221,"ġ":222,"Ģ":223,"ģ":224,"Ĥ":225,"ĥ":226,"Ħ":227,"ħ":228,"Ĩ":229,"ĩ":230,"Ī":231,"ī":232,"Ĭ":233,"ĭ":234,"Į":235,"į":236,"İ":237,"ı":238,"Ĳ":239,"ĳ":240,"Ĵ":241,"ĵ":242,"Ķ":243,"ķ":244,"ĸ":245,"Ĺ":246,"ĺ":247,"Ļ":248,"ļ":249,"Ľ":250,"ľ":251,"Ŀ":252,"ŀ":253,"Ł":254,"ł":255,"Ń":256,"Ġt":257,"he":258,"Ġa":259,"in":260,"Ġthe":261,"Ġo":262,"Ġs":263,"Ġw":264,"re":265,"nd":266,"er":267,"ha":268,"ed":269,"Ġb":270,"ou":271,"Ġc":272,"Ġf":273,"Ġof":274,"Ġm":275,"Ġand":276,"en":277,"it":278,"ing":279,"on":280,"es":281,"or":282,"ar":283,"Ġd":284,"is":285,"Ġp":286,"Ġto":287,"as":288,"Ġin":289,"ll":290,"at":291,"an":292,"Ġl":293,"Ġn":294,"Ġh":295,"Ġha":296,"ic":297,"om":298,"ĠI":299,"ly":300,"hat":301,"le":302,"Ġg":303,"Ġbe":304,"Ġe":305,"gh":306,"ow":307,"al":308,"st":309,"ld":310,"ot":311,"Ġth":312,"Ġhe":313,"Ġwas":314,"se":315,"ut":316,"Ġthat":317,"ent":318,"im":319,"Ġre":320,"ve":321,"id":322,"ac":323,"Ġwh":324,"Ġst":325,"Ġhad":326,"ion":327,"ur":328,"Ġon":329,"Ġu":330,"ght":331,"et":332,"ver":333,"Ġit":334,"Ġwe":335,"Ġr":336,"ith":337,"ad":338,"am":339,"ce":340,"ĠT":341,"Ġwith":342,"Ġfor":343,"ir":344,"Ġan":345,"ter":346,"ight":347,"Ġas":348,"Ġfr":349,"Ġse":350,"--":351,"ess":352,"ous":353,"ay":354,"Ġnot":355,"ain":356,"red":357,"Ġat":358,"Ġhis":359,"ct":360,"all":361,"Ġv":362,"ould":363,"ich":364,"ro":365,"ĠA":366,"il":367,"Ġwhich":368,"ch":369,"ge":370,"ul":371,"Ġmy":372,"th":373,"ore":374,"ke":375,"her":376,"Ġfrom":377,"ill":378,"pe":379,"ĠThe":380,"Ġme":381,"ri":382,"ble":383,"Ġsu":384,"ome":385,"Ġde":386,"Ġwere":387,"Ġy":388,"ol":389,"od":390,"ard":391,"qu":392,"Ġun":393,"Ġbut":394,"if":395,"em":396,"Ġwhe":397,"est":398,"ound":399,"ĠS":400,"ose":401,"Ġne":402,"Ġor":403,"and":404,"um":405,"ind":406,"ĠW":407,"Ġcon":408,"kn":409,"'s":410,"ist":411,"Ġex":412,"Ġab":413,"Ġby":414,"ough":415,"res":416,"Ġfe":417,"ast":418,"ation":419,"ĠC":420,"Ġall":421,"ĠH":422,"ant":423,"nt":424,"Ġsh":425,"own":426,"Ġal":427,"our":428,"os":429,"us":430,"ag":431,"ers":432,"ĠM":433,"Ġhim":434,"Ġle":435,"ust":436,"Ġso":437,"Ġup":438,"Ġhave":439,"Ġcould":440,"Ġno":441,"ity":442,"aw":443,"out":444,"pt":445,"ace":446,"Ġthey":447,"one":448,"ate":449,"ig":450,"ings":451,"Ġout":452,"ong":453,"Ġkn":454,"ven":455,"Ġman":456,"ame":457,"pp":458,"Ġpl":459,"ost":460,"ive":461,"Ġcl":462,"ide":463,"Ġtr":464,"reat":465,"hed":466,"Ġthis":467,"ok":468,"Ġone":469,"Ġsome":470,"ĠB":471,"Ġsp":472,"ĠO":473,"Ġbl":474,"ack":475,"ak":476,"ci":477,"very":478,"han":479,"Ġbeen":480,"Ġwhen":481,"ck":482,"ond":483,"Ġli":484,"Ġint":485,"Ġgr":486,"Ġthere":487,"ort":488,"Ġdo":489,"Ġis":490,"Ġwould":491,"ab":492,"art":493,"ep":494,"Ġstr":495,"Ġar":496,"ies":497,"ie":498,"Ġtheir":499,"ap":500,"un":501,"ure":502,"able":503,"Ġlo":504,"ally":505,"Ġwhat":506,"lf":507,"Ġwor":508,"Ġwho":509,"Ġro":510,"Ġpro":511,"ud":512,"ert":513,"Ġfl":514,"Ġqu":515,"ious":516,"hing":517,"ĠN":518,"ered":519,"Ġthem":520,"ther":521,"Ġim":522,"Ġdis":523,"Ġmore":524,"less":525,"ĠP":526,"Ġyou":527,"Ġaf":528,"ite":529,"Ġits":530,"led":531,"Ġseem":532,"ved":533,"ell":534,"op":535,"ĠIt":536,"ars":537,"ĠD":538,"Ġag":539,"Ġold":540,"are":541,"ood":542,"Ġtim":543,"ĠG":544,"ect":545,"Ġcom":546,"Ġany":547,"Ġthr":548,"ions":549,"Ġsc":550,"ath":551,"Ġdid":552,"Ġbr":553,"Ġover":554,"Ġcr":555,"fore":556,"Ġabout":557,"ĠHe":558,"au":559,"ought":560,"Ġgreat":561,"Ġonly":562,"ream":563,"el":564,"ĠE":565,"Ġsha":566,"ish":567,"Ġnow":568,"cc":569,"ark":570,"ave":571,"Ġdes":572,"way":573,"age":574,"Ġinto":575,"ward":576,"Ġseemed":577,"ass":578,"Ġmad":579,"Ġbefore":580,"Ġthan":581,"Ġnight":582,"Ġwhere":583,"Ġco":584,"urn":585,"ence":586,"Ġvery":587,"..":588,"Ġother":589,"pl":590,"av":591,"Ġthrough":592,"og":593,"Ġeven":594,"Ġgl":595,"ance":596,"Ġtime":597,"Ġafter":598,"Ġhor":599,"Ġsl":600,"Ġpr":601,"ine":602,"The":603,"ted":604,"Ġam":605,"ount":606,"ated":607,"per":608,"Ġsaw":609,"Ġthose":610,"ake":611,"ment":612,"Ġspe":613,"ĠF":614,"Ġj":615,"ness":616,"Ġtw":617,"Ġlike":618,"Ġper":619,"Ġdown":620,"Ġmust":621,"iz":622,"Ġen":623,"ange":624,"ical":625,"ue":626,"ick":627,"Ġthings":628,"ĠL":629,"Ġpe":630,"ice":631,"Ġch":632,"ied":633,"Ġmo":634,"self":635,"ry":636,"ĠR":637,"ew":638,"sed":639,"Ġob":640,"iv":641,"Ġour":642,"ens":643,"Ġmight":644,"ater":645,"ign":646,"ff":647,"Ġcur":648,"Ġdream":649,"ft":650,"ild":651,"les":652,"Ġye":653,"ouse":654,"itt":655,"Ġwind":656,"omet":657,"Ġthough":658,"Ġrec":659,"Ġcame":660,"Ġfound":661,"ling":662,"Ġlong":663,"ertain":664,"dd":665,"ull":666,"Ġbo":667,"Ġter":668,"ful":669,"Ġrem":670,"Ġsa":671,"Ġagain":672,"ary":673,"Ġform":674,"wn":675,"Ġknow":676,"ared":677,"ile":678,"ts":679,"Ġare":680,"Ġund":681,"ps":682,"har":683,"Ġbec":684,"Ġstrange":685,"Ġdist":686,"ink":687,"ror":688,"arter":689,"Ġhow":690,"ĠIn":691,"ible":692,"Ġlight":693,"Ġsee":694,"Ġinc":695,"Ġshe":696,"Ġpo":697,"orm":698,"ree":699,"Ġif":700,"Ġwhose":701,"Ġcan":702,"Ġfar":703,"Ġear":704,"Ġpre":705,"Ġmen":706,"lt":707,"uch":708,"Ġpart":709,"ans":710,"mb":711,"ph":712,"ened":713,"oss":714,"ire":715,"ang":716,"ning":717,"ys":718,"Ġsm":719,"Ġday":720,"Ġsuch":721,"ory":722,"Ġcertain":723,"ĠOn":724,"Ġthing":725,"Ġnever":726,"li":727,"te":728,"oth":729,"'t":730,"Ġk":731,"Ġfo":732,"Ġsomet":733,"Ġthought":734,"Ġthese":735,"ily":736,"Ġres":737,"Ġlook":738,"Ġsin":739,"Ġupon":740,"ial":741,"most":742,"Ġmade":743,"Ġback":744,"Ġsec":745,"Ġbeg":746,"Ġmuch":747,"alk":748,"Ġfir":749,"Ġplace":750,"igh":751,"ere":752,"ock":753,"Ġke":754,"Ġmon":755,"Ġgo":756,"ations":757,"ove":758,"Ġind":759,"Ġ1":760,"Ġimp":761,"ĠCarter":762,"Ġstill":763,"Ġoff":764,"Ġblack":765,"anc":766,"Ġgre":767,"ving":768,"Ġev":769,"ress":770,"ng":771,"ĠJ":772,"yond":773,"ĠTh":774,"ord":775,"atter":776,"ple":777,"Ġknew":778,"Ġcar":779,"ife":780,"ows":781,"ip":782,"ach":783,"cient":784,"ather":785,"Ġsur":786,"ures":787,"Ġvis":788,"Ġdoor":789,"the":790,"Ġmost":791,"ise":792,"Ġhouse":793,"Ġher":794,"Ġacc":795,"Ġbel":796,"Ġbeyond":797,"ĠAnd":798,"rible":799,"Ġfirst":800,"ail":801,"Ġunder":802,"Ġlast":803,"ĠThere":804,"ently":805,"Ġop":806,"str":807,"Ġcont":808,"Ġcome":809,"ult":810,"pect":811,"act":812,"Ġtoo":813,"Ġus":814,"Ġheard":815,"Ġmany":816,"Ġworld":817,"ged":818,"Ġtwo":819,"Ġdr":820,"umb":821,"Ġonce":822,"Ġdark":823,"Ġwell":824,"Ġapp":825,"other":826,"ĠK":827,"Ġseen":828,"Ġap":829,"ause":830,"side":831,"Ġho":832,"Ġway":833,"ned":834,"Ġent":835,"Ġnear":836,"Ġad":837,"Ġevery":838,"hes":839,"hen":840,"Ġthen":841,"Ġtold":842,"Ġey":843,"Ġhand":844,"Ġatt":845,"Ġsub":846,"uman":847,"Ġroom":848,"ished":849,"Ġsound":850,"ons":851,"Ġhorror":852,"ey":853,"Ġalmost":854,"...":855,"llow":856,"man":857,"Ġtri":858,"Ġnew":859,"ors":860,"ict":861,"ĠSt":862,"air":863,"ĠAr":864,"ever":865,"Ġcha":866,"ained":867,"reet":868,"ably":869,"Ġcity":870,"Ġsw":871,"Ġdec":872,"Ġwall":873,"ject":874,"Ġever":875,"ittle":876,"Ġreal":877,"ular":878,"Ġsaid":879,"Ġwill":880,"Ġend":881,"Ġearth":882,"ched":883,"ene":884,"ett":885,"Ġyet":886,"ian":887,"vel":888,"Ġcons":889,"Ġsince":890,"az":891,"Ġleft":892,"iver":893,"ĠThey":894,"ase":895,"Ġvo":896,"ering":897,"Ġstone":898,"ined":899,"ced":900,"Ġpres":901,"ib":902,"Ġhalf":903,"Ġrep":904,"ros":905,"Ġyears":906,"Ġlife":907,"aces":908,"gg":909,"Ġcor":910,"Ġfelt":911,"Ġaway":912,"eed":913,"Ġlittle":914,"Ġdisc":915,"ott":916,"ents":917,"Ġgu":918,"ret":919,"amp":920,"aint":921,"Ġsomething":922,"ub":923,"Ġancient":924,"Ġinf":925,"Ġwr":926,"Ġca":927,"Ġpass":928,"ane":929,"ĠAs":930,"ual":931,"int":932,"Ġmind":933,"Ġunc":934,"Ġcurious":935,"iff":936,"Ġflo":937,"gr":938,"Ġac":939,"Ġret":940,"ody":941,"ves":942,"outh":943,"Ġreg":944,"Ġcour":945,"Ġaw":946,"Ġph":947,"Ġhill":948,"Ġsay":949,"urned":950,"bed":951,"Ġland":952,"Ġmoon":953,"oul":954,"ĠThen":955,"read":956,"ĠBut":957,"Ġlet":958,"ense":959,"Ġown":960,"Ġbegan":961,"ĠY":962,"Ġnor":963,"ns":964,"Ġsk":965,"Ġrel":966,"ition":967,"Ġhuman":968,"Ġhar":969,"Ġfright":970,"Ġcall":971,"Ġhead":972,"Ġwithout":973,"Ġtell":974,"Ġsmall":975,"Ġeyes":976,"mon":977,"Ġtoward":978,"known":979,"ities":980,"Ġhide":981,"Ġhigh":982,"Ġwhile":983,"ix":984,"iar":985,"Ġchan":986,"Ġ\"":987,"Ġnothing":988,"ins":989,"oub":990,"Ġdet":991,"Ġthink":992,"Ġknown":993,"Ġsil":994,"Ġste":995,"Ġbu":996,"Ġabove":997,"Ġname":998,"Ġact":999,"aking":1000,"Ġposs":1001,"ingly":1002,"Ġaround":1003,"Ġmom":1004,"Ġopen":1005,"ner":1006,"Ġbet":1007,"ours":1008,"land":1009,"Ġcle":1010,"Ġpers":1011,"Ġunknown":1012,"Ġhideous":1013,"Ġmor":1014,"att":1015,"cri":1016,"Ġfear":1017,"pped":1018,"Ġmar":1019,"Ġnat":1020,"Ġless":1021,"ying":1022,"ised":1023,"Ġlow":1024,"ren":1025,"oud":1026,"Ġstud":1027,"ways":1028,"Ġwond":1029,"Ġwork":1030,"Ġfam":1031,"Ġjust":1032,"Ġocc":1033,"ery":1034,"Ġface":1035,"Ġbeh":1036,"ĠWard":1037,"Ġterrible":1038,"ale":1039,"Ġthree":1040,"light":1041,"erv":1042,"ods":1043,"of":1044,"ific":1045,"Ġbecause":1046,"br":1047,"ountain":1048,"Ġdreams":1049,"ex":1050,"Ġsle":1051,"Ġkind":1052,"Ġwat":1053,"que":1054,"ĠWhat":1055,"ia":1056,"Ġread":1057,"Ġappe":1058,"Ġtre":1059,"Ġcol":1060,"den":1061,"Ġbro":1062,"ople":1063,"Ġdeep":1064,"Ġfind":1065,"ung":1066,"ener":1067,"ither":1068,"Ġsea":1069,"ek":1070,"Ġrest":1071,"Ġmoment":1072,"Ġsight":1073,"ached":1074,"ank":1075,"cul":1076,"ber":1077,"cl":1078,"ĠAt":1079,"thing":1080,"Ġfeet":1081,"like":1082,"Ġcent":1083,"eng":1084,"ited":1085,"Ġem":1086,"utter":1087,"Ġhimself":1088,"here":1089,"Ġins":1090,"Ġsun":1091,"Ġfew":1092,"ague":1093,"Ġclose":1094,"Ġanother":1095,"Ġcomp":1096,"haps":1097,"Ġamong":1098,"Ġ'":1099,"Ġsing":1100,"ley":1101,"Ġext":1102,"Ġlooked":1103,"Ġindeed":1104,"Ġfloor":1105,"ces":1106,"Ġfull":1107,"Ġmay":1108,"ating":1109,"Ġhas":1110,"uct":1111,"cept":1112,"Ġodd":1113,"Ġbur":1114,"arr":1115,"Ġlater":1116,"Ġexp":1117,"be":1118,"mm":1119,"Ġfin":1120,"Ġhere":1121,"ty":1122,"lect":1123,"Ġspace":1124,"Ġsign":1125,"ross":1126,"Ġvast":1127,"Ġcourse":1128,"Ġbehind":1129,"ug":1130,"und":1131,"aring":1132,"Ġpast":1133,"Ġmet":1134,"Ġinter":1135,"Ġlar":1136,"Ġtalk":1137,"owed":1138,"Ġsoon":1139,"iend":1140,"cious":1141,"ĠThis":1142,"ĠU":1143,"head":1144,"Ġexpl":1145,"Ġque":1146,"Ġes":1147,"Ġdep":1148,"Ġconf":1149,"Ġbeing":1150,"cha":1151,"ured":1152,"ually":1153,"Ġdead":1154,"oke":1155,"ason":1156,"Ġwalls":1157,"so":1158,"Ġref":1159,"Ġmyself":1160,"Ġalways":1161,"Ġfollow":1162,"wh":1163,"Ġmatter":1164,"Ġinv":1165,"Ġyoung":1166,"Ġenough":1167,"Ġpeople":1168,"Ġtill":1169,"Ġwild":1170,"Ġagainst":1171,"Ġqueer":1172,"Ġte":1173,"Ġwent":1174,"kness":1175,"ook":1176,"ra":1177,"Ġfore":1178,"ages":1179,"Ġboth":1180,"Ġmountain":1181,"Ġsame":1182,"ĠThat":1183,"Ġshad":1184,"Ġobject":1185,"Ġbelie":1186,"sc":1187,"Ġwood":1188,"Ġcat":1189,"Ġdoub":1190,"Ġget":1191,"olog":1192,"It":1193,"Ġside":1194,"Ġtook":1195,"ĠWill":1196,"used":1197,"Ġoutside":1198,"Ġquest":1199,"Ġbody":1200,"ones":1201,"Ġtown":1202,"als":1203,"ided":1204,"strous":1205,"Ġsqu":1206,"Ġdiff":1207,"Ġwhis":1208,"ird":1209,"ĠCur":1210,"ash":1211,"Ġinst":1212,"imes":1213,"Ġwhole":1214,"der":1215,"ien":1216,"old":1217,"hem":1218,"Ġant":1219,"pr":1220,"Ġfur":1221,"Ġmake":1222,"Ġel":1223,"ham":1224,"olk":1225,"osed":1226,"Ġmonstrous":1227,"fter":1228,"ope":1229,"we":1230,"Ġpur":1231,"Ġlay":1232,"ments":1233,"Ġtem":1234,"Ġgh":1235,"ute":1236,"Ġbrought":1237,"Ġright":1238,"Ġvague":1239,"Ġwindow":1240,"dden":1241,"ased":1242,"Ġmem":1243,"Ġrock":1244,"Ġsn":1245,"its":1246,"Ġexc":1247,"Ġbecame":1248,"wen":1249,"Ġset":1250,"orn":1251,"Ġmyst":1252,"Ġdeath":1253,"Ġcare":1254,"Ġplan":1255,"Ġart":1256,"Ġcry":1257,"Ġturned":1258,"ude":1259,"ints":1260,"ths":1261,"ately":1262,"Ġcoll":1263,"Ġsleep":1264,"ches":1265,"unt":1266,"Ġeff":1267,"ention":1268,"uring":1269,"Ġimm":1270,"Ġdire":1271,"Ġgave":1272,"ĠAll":1273,"Ġair":1274,"Ġlead":1275,"ĠStreet":1276,"for":1277,"ĠV":1278,"Ġcre":1279,"Ġdim":1280,"Ġhel":1281,"aced":1282,"irc":1283,"ters":1284,"ants":1285,"Ġsky":1286,"Ġclear":1287,"ĠCurwen":1288,"ped":1289,"iness":1290,"Ġwa":1291,"aken":1292,"Ġlarge":1293,"lly":1294,"ĠDr":1295,"Ġhowever":1296,"Ġvoice":1297,"Ġfaint":1298,"arch":1299,"Ġtrans":1300,"ormal":1301,"ken":1302,"ines":1303,"Ġgener":1304,"but":1305,"ident":1306,"ural":1307,"tern":1308,"Ġsudden":1309,"Ġtow":1310,"Ġdirect":1311,"get":1312,"ms":1313,"inite":1314,"ically":1315,"ĠFor":1316,"ides":1317,"Ġru":1318,"Ġalong":1319,"Ġsecond":1320,"Ġsort":1321,"ont":1322,"Ġstreet":1323,"Ġword":1324,"Ġsy":1325,"iss":1326,"idden":1327,"Ġabys":1328,"Ġothers":1329,"ized":1330,"eps":1331,"ggest":1332,"Ġwater":1333,"Ġfriend":1334,"Ġsuggest":1335,"mit":1336,"Ġpict":1337,"ĠHis":1338,"aves":1339,"Ġbook":1340,"ously":1341,"Ġneed":1342,"harles":1343,"Ġabs":1344,"Ġalone":1345,"Ġlear":1346,"ists":1347,"Ġwholly":1348,"ination":1349,"ĠWe":1350,"ef":1351,"Ġwalk":1352,"Ġdesert":1353,"Ġghoul":1354,"ĠCharles":1355,"iously":1356,"Ġwindows":1357,"ric":1358,"Ġir":1359,"Ġmere":1360,"ĠWillett":1361,"xt":1362,"Ġchar":1363,"Ġfolk":1364,"Ġgood":1365,"Ġeach":1366,"aught":1367,"nded":1368,"Ġdel":1369,"Ġimag":1370,"me":1371,"ories":1372,"Ġgone":1373,"Ġstart":1374,"Ġrecall":1375,"Ġadv":1376,"ĠZ":1377,"ative":1378,"Ġheld":1379,"Ġitself":1380,"Ġass":1381,"ĠMr":1382,"Ġperhaps":1383,"Ġmorning":1384,"inted":1385,"Ġdev":1386,"ĠWhen":1387,"Ġquite":1388,"Ġbelow":1389,"Ġcontin":1390,"Ġlab":1391,"Ġdays":1392,"Ġkeep":1393,"rap":1394,"Ġsens":1395,"Ġcirc":1396,"iting":1397,"Ġreached":1398,"arent":1399,"iven":1400,"Ġsol":1401,"Ġhome":1402,"Ġuse":1403,"ade":1404,"Ġshould":1405,"Ġroad":1406,"Ġcomm":1407,"Ġprim":1408,"ĠArk":1409,"iet":1410,"ked":1411,"Ġfall":1412,"owing":1413,"ield":1414,"ully":1415,"not":1416,"Ġtake":1417,"Ġbene":1418,"illed":1419,"Ġdef":1420,"Ġexper":1421,"Ġdesp":1422,"ĠOnes":1423,"Ġacross":1424,"Ġnameless":1425,"Ġpol":1426,"Ġconc":1427,"ĠArkham":1428,"Ġfeel":1429,"Ġ19":1430,"Ġabyss":1431,"ier":1432,"port":1433,"Ġdri":1434,"Ġwhite":1435,"Ġexist":1436,"Ġsometimes":1437,"Ġgrew":1438,"Ġbuild":1439,"hy":1440,"Ġsent":1441,"Ġgods":1442,"Ġsupp":1443,"Ġcloud":1444,"Ġprof":1445,"Ġpossible":1446,"Ġwar":1447,"asp":1448,"Ġtried":1449,"Ġnorth":1450,"cess":1451,"ral":1452,"uck":1453,"Ġmot":1454,"gend":1455,"Ġground":1456,"Ġevil":1457,"Ġdoubt":1458,"In":1459,"lves":1460,"ices":1461,"imp":1462,"Ġnext":1463,"ĠMy":1464,"ected":1465,"'d":1466,"ging":1467,"erm":1468,"Ġcreat":1469,"idst":1470,"Ġclim":1471,"ĠGreat":1472,"Ġbar":1473,"iced":1474,"ayed":1475,"Ġconn":1476,"Ġscream":1477,"Ġpoint":1478,"Ġutter":1479,"Ġdw":1480,"Ġwithin":1481,"Ġlegend":1482,"Ġyouth":1483,"ize":1484,"Ġbeneath":1485,"rid":1486,"ism":1487,"Ġpow":1488,"ales":1489,"ote":1490,"Ġleast":1491,"ĠOld":1492,"ression":1493,"pected":1494,"Ġconscious":1495,"aid":1496,"ued":1497,"Ġmark":1498,"Ġshock":1499,"Ġchild":1500,"Ġremem":1501,"Ġhard":1502,"ten":1503,"Ġce":1504,"Ġcase":1505,"ching":1506,"pping":1507,"Ġroof":1508,"Ġrecord":1509,"erest":1510,"Ġill":1511,"Ġmin":1512,"Ġanything":1513,"Ġboy":1514,"Ġhills":1515,"Ġser":1516,"Ġhaving":1517,"Ġheav":1518,"vers":1519,"awn":1520,"ues":1521,"inct":1522,"ĠWest":1523,"antic":1524,"iew":1525,"Ġhorrible":1526,"Ġpeak":1527,"Ġterror":1528,"Ġkept":1529,"Ġdro":1530,"ality":1531,"Ġvar":1532,"ĠAn":1533,"cho":1534,"Ġaff":1535,"Ġsecret":1536,"Ġed":1537,"Ġcount":1538,"arce":1539,"ried":1540,"Ġyour":1541,"Ġcomple":1542,".\"":1543,"Ġfarm":1544,"Ġfrightful":1545,"cript":1546,"ired":1547,"Ġage":1548,"Ġhours":1549,"aled":1550,"Ġfrag":1551,"arded":1552,"Ġorg":1553,"Ġinterest":1554,"Ġdog":1555,"Ġhelp":1556,"Ġve":1557,"ening":1558,"alley":1559,"Ġappeared":1560,"culiar":1561,"ead":1562,"Ġlist":1563,"ancy":1564,"Ġpresent":1565,"nce":1566,"yl":1567,"Ġsense":1568,"ern":1569,"Ġcast":1570,"Ġfour":1571,"Ġoften":1572,"anic":1573,"idence":1574,"Ġsteps":1575,"ouses":1576,"Ġplain":1577,"Ġdistur":1578,"Ġdistant":1579,"As":1580,"ob":1581,"Ġfig":1582,"Ġdone":1583,"Ġnone":1584,"ulf":1585,"Ġspoke":1586,"udd":1587,"Ġpeculiar":1588,"Ġgold":1589,"Ġgreen":1590,"fully":1591,"king":1592,"Ġled":1593,"Ġhapp":1594,"Ġvill":1595,"Ġappro":1596,"Ġahead":1597,"Ġrose":1598,"keley":1599,"Ġcold":1600,"ived":1601,"Ġtor":1602,"Ġfive":1603,"Ġrather":1604,"iliar":1605,"Ġhands":1606,"Ġfamily":1607,"Ġadd":1608,"rew":1609,"Ġput":1610,"Ġnarr":1611,"airs":1612,"aut":1613,"Ġbas":1614,"ister":1615,"Ġriver":1616,"ands":1617,"ĠNew":1618,"Ġspec":1619,"Ġgrey":1620,"Ġperson":1621,"Ġanti":1622,"But":1623,"hip":1624,"tered":1625,"let":1626,"Ġgot":1627,"Ġvi":1628,"Ġsteep":1629,"rom":1630,"Ġfre":1631,"Ġmag":1632,"Ġpap":1633,"Ġstood":1634,"ween":1635,"Ġtaken":1636,"ising":1637,"Ġred":1638,"ĠAkeley":1639,"Ġshall":1640,"cent":1641,"no":1642,"Ġbus":1643,"uth":1644,"Ġview":1645,"iled":1646,"ives":1647,"by":1648,"ges":1649,"ne":1650,"Ġsave":1651,"eness":1652,"Ġpri":1653,"asion":1654,"Ġeld":1655,"Ġsever":1656,"ilst":1657,"Ġalien":1658,"Ġplaces":1659,"ances":1660,"Ġwonder":1661,"Ġesc":1662,"Ġdiffere":1663,"Ġdespite":1664,"ney":1665,"uff":1666,"Ġfres":1667,"Ġrepe":1668,"Ġsure":1669,"nts":1670,"Ġgrave":1671,"aving":1672,"Ġphys":1673,"Ġmemory":1674,"ah":1675,"up":1676,"Ġcond":1677,"onic":1678,"otes":1679,"set":1680,"Ġused":1681,"ief":1682,"Ġfoot":1683,"Ġreturn":1684,"Ġcalled":1685,"Ġseveral":1686,"ec":1687,"yr":1688,"ze":1689,"Ġfather":1690,"Ġmer":1691,"Ġdread":1692,"urch":1693,"Ġdoct":1694,"Ġprod":1695,"Ġcentur":1696,"Ġelse":1697,"Ġwords":1698,"line":1699,"Ġhear":1700,"Ġwhy":1701,"amb":1702,"ceed":1703,"Ġsomew":1704,"ĠOf":1705,"ĠNo":1706,"Ġbetween":1707,"omed":1708,"Ġeas":1709,"osm":1710,"ogn":1711,"Ġnature":1712,"Ġver":1713,"Ġtales":1714,"Ġcas":1715,"Ġdi":1716,"oman":1717,"Ġnoticed":1718,"Ġspr":1719,"Ġloc":1720,"arsh":1721,"Ġtimes":1722,"Ġsounds":1723,"Ġchange":1724,"Ġson":1725,"Ġcell":1726,"ats":1727,"Ġbeings":1728,"rif":1729,"astic":1730,"Then":1731,"Ġamidst":1732,"Ġsingular":1733,"Ġsim":1734,"Ġport":1735,"Ġline":1736,"Ġstars":1737,"Ġunt":1738,"ĠPro":1739,"Ġbrain":1740,"Ġspeak":1741,"bably":1742,"Ġten":1743,"Ġod":1744,"Ġsoul":1745,"Ġmod":1746,"Ġduring":1747,"Ġhouses":1748,"Ġgive":1749,"Ġwhilst":1750,"Ġsumm":1751,"Ġliving":1752,"Ġspect":1753,"Ġlost":1754,"Ġstrang":1755,"Ġperf":1756,"Ġsinister":1757,"umbling":1758,"Ġshadow":1759,"ient":1760,"Ġturn":1761,"Ġwide":1762,"nding":1763,"Ġche":1764,"Ġda":1765,"ates":1766,"aged":1767,"Ġgreater":1768,"Ġbetter":1769,"bing":1770,"gin":1771,"itch":1772,"Ġreve":1773,"Ġra":1774,"ilman":1775,"Ġgrotes":1776,"Ġevening":1777,"ape":1778,"that":1779,"Ġable":1780,"Ġcosm":1781,"itude":1782,"Ġtrees":1783,"Ġtou":1784,"Ġbes":1785,"Ġpar":1786,"Ġpat":1787,"ution":1788,"Ġyell":1789,"ushed":1790,"Ġnightm":1791,"Ġsurf":1792,"Ġvisit":1793,"Ġlearned":1794,"Ġnarrow":1795,"sp":1796,"Ġtit":1797,"itive":1798,"Ġlim":1799,"Ġreason":1800,"ĠAfter":1801,"ilt":1802,"ement":1803,"Ġfell":1804,"cial":1805,"Ġfollowed":1806,"rel":1807,"arth":1808,"Ġforg":1809,"cip":1810,"lessly":1811,"oped":1812,"Ġenc":1813,"Ġyear":1814,"Ġincl":1815,"Ġnearly":1816,"sy":1817,"Ġbod":1818,"selves":1819,"antly":1820,"Ġfamiliar":1821,"Ġserv":1822,"Ġmess":1823,"Ġhell":1824,"ift":1825,"ressed":1826,"Ġshri":1827,"Ġblood":1828,"Ġago":1829,"Ġslight":1830,"Ġhold":1831,"Ġguess":1832,"Ġcrypt":1833,"Ġgeneral":1834,"Ġmerely":1835,"Ġfresh":1836,"ics":1837,"Ġsto":1838,"olved":1839,"Ġalt":1840,"ĠEng":1841,"Ġmadness":1842,"plic":1843,"Ġincre":1844,"Ġprev":1845,"Ġsuddenly":1846,"ipp":1847,"Ġfant":1848,"Ġmid":1849,"Ġthick":1850,"Ġsuper":1851,"Ġalso":1852,"apt":1853,"cy":1854,"ining":1855,"Ġcamp":1856,"Ġfree":1857,"Ġtop":1858,"aster":1859,"Ġleng":1860,"Ġwhom":1861,"usion":1862,"ĠBr":1863,"ledge":1864,"Ġglimp":1865,"ĠOne":1866,"Ġapparent":1867,"Ġpassed":1868,"Ġregion":1869,"Ġspecim":1870,"Ġori":1871,"Ġhaunt":1872,"Ġgro":1873,"Ġthin":1874,"Ġweek":1875,"though":1876,"ĠSo":1877,"Ġabn":1878,"Ġshort":1879,"Ġdistance":1880,"Ġsecre":1881,"overed":1882,"ibly":1883,"ground":1884,"Ġbooks":1885,"Ġgrotesque":1886,"house":1887,"lic":1888,"Ġfact":1889,"ether":1890,"ĠGilman":1891,"Ġcommon":1892,"Ġshape":1893,"ĠLake":1894,"Ġearly":1895,"Ġwondered":1896,"Ġdifferent":1897,"ugg":1898,"ioned":1899,"ets":1900,"Ġmean":1901,"oles":1902,"ards":1903,"Ġarch":1904,"Ġoccur":1905,"Ġoccasion":1906,"bid":1907,"Ġwish":1908,"hast":1909,"Ġmus":1910,"Ġdon":1911,"ison":1912,"Ġeither":1913,"imate":1914,"Ġreally":1915,"ĠBe":1916,"Ġprep":1917,"Ġkey":1918,"Ġheavy":1919,"mouth":1920,"oy":1921,"Ġmention":1922,"arkness":1923,"Ġele":1924,"aining":1925,"Ġperi":1926,"Ġrecogn":1927,"Ġghouls":1928,"Ġcut":1929,"itions":1930,"Ġbeaut":1931,"Ġthous":1932,"ime":1933,"pered":1934,"ĠMarsh":1935,"Ġtrave":1936,"Ġvisible":1937,"Ġcountry":1938,"Ġlength":1939,"ony":1940,"Ġconv":1941,"Ġformed":1942,"Ġopened":1943,"Ġhope":1944,"Ġcapt":1945,"ĠYou":1946,"Ġfinally":1947,"med":1948,"oc":1949,"Ġdarkness":1950,"ann":1951,"Ġlate":1952,"Ġstand":1953,"aying":1954,"ified":1955,"Ġstrong":1956,"itten":1957,"Ġparty":1958,"Ġaccount":1959,"otten":1960,"nsmouth":1961,"asphem":1962,"Ġdoctor":1963,"sion":1964,"Ġsat":1965,"hant":1966,"oured":1967,"Ġhidden":1968,"Ġhall":1969,"ental":1970,"vern":1971,"ograp":1972,"Ġtwil":1973,"Ġcannot":1974,"ailed":1975,"Ġshriek":1976,"nel":1977,"pes":1978,"sw":1979,"to":1980,"erved":1981,"ented":1982,"Ġrese":1983,"ains":1984,"Ġvan":1985,"ulpt":1986,"Ġconce":1987,"Ġblasphem":1988,"cially":1989,"Ġsculpt":1990,"Ġslow":1991,"ĠJo":1992,"Ġaccur":1993,"Ġmountains":1994,"ai":1995,"aff":1996,"Ġbott":1997,"Ġmist":1998,"Ġple":1999,"Ġnumb":2000,"ots":2001,"Ġstate":2002,"ĠTo":2003,"iles":2004,"olph":2005,"ĠSome":2006,"Ġord":2007,"Ġscene":2008,"Ġchurch":2009,"Ġpoor":2010,"Ġreport":2011,"Ġruins":2012,"Ġpower":2013,"Ġcomplete":2014,"Ġorigin":2015,"bur":2016,"ev":2017,"Ġav":2018,"Ġbre":2019,"Ġlur":2020,"Ġgulf":2021,"Ġanim":2022,"isted":2023,"Ġlibr":2024,"appe":2025,"Ġshew":2026,"Ġsilent":2027,"Ġreflect":2028,"Ġdogs":2029,"Ġsurface":2030,"ech":2031,"min":2032,"ron":2033,"use":2034,"Ġsour":2035,"Ġsouth":2036,"Ġbad":2037,"Ġfan":2038,"vered":2039,"tering":2040,"Ġva":2041,"Ġune":2042,"Ġlevel":2043,"aked":2044,"cked":2045,"Ġknowledge":2046,"Ġbecome":2047,"Ġviol":2048,"Ġyellow":2049,"Ġty":2050,"Ġsix":2051,"Ġfac":2052,"Ġmass":2053,"Ġmater":2054,"Ġdam":2055,"Ġdied":2056,"Ġpa":2057,"ĠAl":2058,"Ġexcept":2059,"Ġupper":2060,"Ġdesce":2061,"Ġobsc":2062,"umbled":2063,"azed":2064,"mer":2065,"Ġbest":2066,"Ġcal":2067,"lled":2068,"atic":2069,"alth":2070,"ider":2071,"pecially":2072,"Ġcoming":2073,"Ġparts":2074,"Ġ17":2075,"ixed":2076,"Ġelder":2077,"Ġnightmare":2078,"Th":2079,"oned":2080,"Ġnormal":2081,"Ġhour":2082,"Ġhig":2083,"aws":2084,"Ġtrad":2085,"Ġblock":2086,"Ġthemselves":2087,"Ġcraw":2088,"Ġshar":2089,"ĠInnsmouth":2090,"Ġsurv":2091,"Ġcolle":2092,"Ġdirection":2093,"Ġstreets":2094,"Ġabnormal":2095,"Ġtwilight":2096,"'ll":2097,"ru":2098,"Ġsett":2099,"Ġwished":2100,"ises":2101,"athe":2102,"Ġansw":2103,"Ġhist":2104,"ĠThese":2105,"Ġwhether":2106,"Ġfears":2107,"Ġshr":2108,"ĠMan":2109,"ĠBl":2110,"Ġspir":2111,"ĠNow":2112,"ivid":2113,"anced":2114,"Ġhorrors":2115,"Ġstudy":2116,"ĠWhate":2117,"Ġcats":2118,"pan":2119,"Ġsought":2120,"edi":2121,"Ġbore":2122,"Ġbreat":2123,"Ġborn":2124,"Ġfield":2125,"Ġlone":2126,"Ġgiven":2127,"Ġequ":2128,"Ġheight":2129,"idently":2130,"Ġrum":2131,"Ġrun":2132,"Ġang":2133,"Ġsearch":2134,"iful":2135,"empt":2136,"Ġship":2137,"Ġprobably":2138,"Ġflight":2139,"Ġmonst":2140,"undred":2141,"Ġbelieve":2142,"And":2143,"oid":2144,"zz":2145,"Ġide":2146,"Ġfire":2147,"Ġdust":2148,"Ġnerv":2149,"Ġhundred":2150,"ility":2151,"ĠSe":2152,"ĠWh":2153,"ĠNor":2154,"elt":2155,"Ġprom":2156,"Ġcompan":2157,"Ġfinal":2158,"Ġeffect":2159,"Ġpicture":2160,"Ġsecrets":2161,"bered":2162,"ught":2163,"Ġtable":2164,"Ġbul":2165,"Ġfut":2166,"Ġdest":2167,"ature":2168,"Ġhy":2169,"Ġunf":2170,"Ġorder":2171,"ĠWil":2172,"Ġarr":2173,"ĠGod":2174,"Ġscarce":2175,"iving":2176,"Ġlonger":2177,"ivers":2178,"initely":2179,"Ġvarious":2180,"Ġfrequ":2181,"ips":2182,"look":2183,"uc":2184,"Ġfart":2185,"Ġmal":2186,"Ġtomb":2187,"Ġhair":2188,"ĠInd":2189,"enty":2190,"Ġforth":2191,"ulous":2192,"Ġbegin":2193,"Ġ18":2194,"Ġswe":2195,"Ġdetail":2196,"Ġlegends":2197,"Ġmaterial":2198,"At":2199,"co":2200,"Ġscient":2201,"Ġhost":2202,"Ġrad":2203,"emon":2204,"agged":2205,"Ġtrace":2206,"Ġspot":2207,"Ġdisappe":2208,"There":2209,"attle":2210,"Ġlower":2211,"Ġtower":2212,"Ġbuilding":2213,"Ġsomewhat":2214,"uced":2215,"Ġopp":2216,"Ġrece":2217,"ackness":2218,"Ġstret":2219,"Ġneigh":2220,"andolph":2221,"Ġleave":2222,"Ġquiet":2223,"aths":2224,"Ġspeech":2225,"Ġbox":2226,"angu":2227,"Ġdisco":2228,"Ġmorbid":2229,"attered":2230,"Ġconsciousness":2231,"ax":2232,"cest":2233,"ience":2234,"uous":2235,"uge":2236,"wise":2237,"Ġwest":2238,"Ġcult":2239,"Ġfif":2240,"Ġelect":2241,"urd":2242,"ills":2243,"Ġtry":2244,"Ġdecided":2245,"Ġletter":2246,"Ġletters":2247,"Ġwhispered":2248,"Ġtemple":2249,"Ġvillage":2250,"Ġfantastic":2251,"He":2252,"atory":2253,"atures":2254,"anes":2255,"Ġgate":2256,"amed":2257,"ump":2258,"ĠOr":2259,"Ġblackness":2260,"ection":2261,"Ġglass":2262,"Ġsaf":2263,"Ġincred":2264,"Ġuncle":2265,"Ġtalked":2266,"ological":2267,"TH":2268,"inary":2269,"Ġwife":2270,"isk":2271,"ĠIf":2272,"Ġstones":2273,"Ġround":2274,"Ġfront":2275,"Ġvol":2276,"Ġalive":2277,"Ġarm":2278,"aped":2279,"Ġbring":2280,"Ġmoved":2281,"Ġentered":2282,"Ġattempt":2283,"Ġreturned":2284,"bour":2285,"yn":2286,"Ġ2":2287,"Ġcities":2288,"Ġhast":2289,"Ġancest":2290,"oseph":2291,"osity":2292,"Ġquick":2293,"ĠEd":2294,"Ġafterward":2295,"Ġobs":2296,"Ġsail":2297,"Ġforms":2298,"Ġcarven":2299,"Ġappear":2300,"Ġdeserted":2301,"Ġlabor":2302,"Ġcases":2303,"Ġcellar":2304,"Ġforgotten":2305,"Ġhellish":2306,"Ġaccursed":2307,"aven":2308,"ux":2309,"itable":2310,"Ġrace":2311,"ĠAb":2312,"Ġdevel":2313,"Ġcliff":2314,"Ġcovered":2315,"Ġimport":2316,"Ġeverything":2317,"Ġpossess":2318,"Ġsignific":2319,"Ġconcer":2320,"Ġpeaks":2321,"Ġtorch":2322,"noon":2323,"Ġcosmic":2324,"Ġsharp":2325,"body":2326,"how":2327,"men":2328,"sha":2329,"Ġought":2330,"reme":2331,"Ġpain":2332,"Ġgard":2333,"Ġforb":2334,"Ġforce":2335,"Ġexam":2336,"oked":2337,"Ġgrou":2338,"ĠDen":2339,"Ġdescri":2340,"Ġglad":2341,"ĠRandolph":2342,"Ġobv":2343,"ltimate":2344,"Ġresp":2345,"Ġsnow":2346,"Ġperiod":2347,"Ġlibrary":2348,"aly":2349,"cher":2350,"rs":2351,"uly":2352,"where":2353,"erous":2354,"ences":2355,"Ġlangu":2356,"stand":2357,"ams":2358,"illing":2359,"Ġsuff":2360,"Ġunn":2361,"Ġshowed":2362,"Ġshudd":2363,"Ġclosed":2364,"Ġolder":2365,"Ġgoing":2366,"ĠJoseph":2367,"Ġpassage":2368,"Ġcuriously":2369,"Ġbuilt":2370,"Ġcreatures":2371,"Ġlocal":2372,"Ġbodies":2373,"Ġoccurred":2374,"ograph":2375,"Ġfarther":2376,"day":2377,"ger":2378,"Ġice":2379,"Ġsize":2380,"Ġbound":2381,"Ġmiss":2382,"Ġdrew":2383,"Ġlive":2384,"alt":2385,"Ġvalley":2386,"estig":2387,"Ġtrue":2388,"ĠBost":2389,"Ġlived":2390,"Ġscr":2391,"Ġeye":2392,"Ġattic":2393,"Ġcorrid":2394,"Ġfully":2395,"ae":2396,"ior":2397,"ians":2398,"Ġsand":2399,"oun":2400,"ouble":2401,"Ġfle":2402,"pend":2403,"ĠShe":2404,"ĠWith":2405,"Ġfeatures":2406,"ĠCh":2407,"Ġdisp":2408,"mber":2409,"mmi":2410,"Ġantiqu":2411,"ĠBoston":2412,"human":2413,"ler":2414,"Ġest":2415,"Ġtall":2416,"Ġbri":2417,"Ġfab":2418,"Ġmat":2419,"oring":2420,"Ġpit":2421,"Ġpos":2422,"Ġpub":2423,"Ġlatter":2424,"owd":2425,"stance":2426,"Ġreach":2427,"Ġfrantic":2428,"ĠHill":2429,"ively":2430,"Ġgrow":2431,"Ġbrick":2432,"Ġafternoon":2433,"Ġimpress":2434,"Ġactual":2435,"Ġbroken":2436,"Ġsingle":2437,"Ġthousand":2438,"night":2439,"Ġaut":2440,"rent":2441,"Ġmill":2442,"Ġmouth":2443,"Ġpal":2444,"Ġaspect":2445,"ults":2446,"ols":2447,"Ġneare":2448,"istic":2449,"aps":2450,"Ġbrid":2451,"Ġmove":2452,"Ġobt":2453,"Ġsurpr":2454,"Ġsubt":2455,"Ġpresence":2456,"Ġcolum":2457,"Ġleading":2458,"Ġescape":2459,"When":2460,"gl":2461,"gy":2462,"iac":2463,"ius":2464,"Ġwant":2465,"ital":2466,"arn":2467,"Ġdared":2468,"Ġstat":2469,"Ġweird":2470,"ests":2471,"Ġnecess":2472,"Ġblind":2473,"Ġgrand":2474,"ĠNot":2475,"Ġremote":2476,"Ġfrightened":2477,"ĠUn":2478,"Ġobjects":2479,"Ġcharac":2480,"Ġfigure":2481,"Ġhappened":2482,"Ġobscure":2483,"Ġblocks":2484,"ĠWhateley":2485,"Ġscarcely":2486,"bit":2487,"hood":2488,"Ġident":2489,"Ġinner":2490,"Ġhint":2491,"Ġhuge":2492,"Ġrid":2493,"ĠAmmi":2494,"Ġmeet":2495,"Ġdeg":2496,"Ġsoft":2497,"Ġtrack":2498,"ĠPick":2499,"Ġjo":2500,"Ġremained":2501,"Ġbegun":2502,"Ġnatural":2503,"Ġpurp":2504,"Ġmyster":2505,"Ġutterly":2506,"Ġgolden":2507,"Ġspecimens":2508,"Ġvanished":2509,"Ġsource":2510,"Ġscientific":2511,"Ġid":2512,"held":2513,"ork":2514,"Ġden":2515,"Ġdom":2516,"Ġpie":2517,"Ġtoget":2518,"Ġrev":2519,"Ġstri":2520,"Ġexact":2521,"Ġarcha":2522,"Ġproved":2523,"Ġflash":2524,"ĠDan":2525,"Ġdesign":2526,"ĠFrom":2527,"Ġsigns":2528,"Ġmetal":2529,"Ġespecially":2530,"Ġpurs":2531,"Ġclearly":2532,"Ġcontinued":2533,"Ġpolice":2534,"Ġfragments":2535,"Ġslowly":2536,"Ġnervous":2537,"Ġlaboratory":2538,"Ġtogether":2539,".'":2540,"On":2541,"chan":2542,"ires":2543,"round":2544,"Ġmental":2545,"Ġrit":2546,"Ġsep":2547,"ries":2548,"Ġsus":2549,"Ġexpect":2550,"Ġshore":2551,"Ġshun":2552,"Ġwhatever":2553,"Ġcrowd":2554,"Ġprot":2555,"Ġlights":2556,"Ġevidently":2557,"Ġbrood":2558,"Ġempt":2559,"Ġsunset":2560,"Ġquestion":2561,"Ġimagination":2562,"Ġprimal":2563,"Ġshocking":2564,"Ġprepared":2565,"Ġbeauty":2566,"ĠPickman":2567,"po":2568,"pha":2569,"Ġble":2570,"Ġfash":2571,"Ġemb":2572,"aching":2573,"aded":2574,"Ġnote":2575,"Ġunm":2576,"Ġstruck":2577,"Ġeng":2578,"Ġpartic":2579,"Ġwatched":2580,"Ġoddly":2581,"asonry":2582,"Ġimmedi":2583,"Ġdwell":2584,"Ġremember":2585,"Ġroofs":2586,"Ġapparently":2587,"Ġhigher":2588,"Ġforbidden":2589,"That":2590,"lish":2591,"sh":2592,"reg":2593,"Ġmed":2594,"ishing":2595,"Ġlau":2596,"uttered":2597,"Ġstre":2598,"rop":2599,"Ġmeans":2600,"Ġconst":2601,"Ġexpected":2602,"ĠCapt":2603,"Ġleg":2604,"uded":2605,"Ġdispl":2606,"Ġcuri":2607,"Ġterr":2608,"ĠKad":2609,"Ġvoices":2610,"Ġawful":2611,"Ġfollowing":2612,"Ġwhisper":2613,"Ġinstant":2614,"Ġclouds":2615,"Ġuntil":2616,"Ġodour":2617,"Ġstopped":2618,"Ġbottom":2619,"My":2620,"eys":2621,"gau":2622,"ming":2623,"xious":2624,"Ġwand":2625,"Ġfa":2626,"Ġfurn":2627,"Ġfancy":2628,"Ġmasonry":2629,"Ġpull":2630,"Ġtot":2631,"otic":2632,"Ġthund":2633,"ety":2634,"ction":2635,"Ġsucc":2636,"resp":2637,"Ġfeared":2638,"Ġformer":2639,"ĠOnce":2640,"Ġsilence":2641,"Ġexpression":2642,"Ġdepart":2643,"Ġtele":2644,"Ġvaguely":2645,"Ġplanet":2646,"Ġtowers":2647,"Ġrecalled":2648,"Ġdwelt":2649,"rupt":2650,"Ġfuture":2651,"looking":2652,"ring":2653,"uzz":2654,"Ġae":2655,"Ġoce":2656,"Ġfaces":2657,"iter":2658,"Ġpen":2659,"Ġinex":2660,"Ġbeheld":2661,"Ġran":2662,"Ġrust":2663,"Ġasked":2664,"ode":2665,"ĠSomet":2666,"umin":2667,"Ġmanner":2668,"Ġcrumbling":2669,"Ġslope":2670,"etting":2671,"Ġguard":2672,"Ġinform":2673,"Ġcaused":2674,"Ġwatch":2675,"Ġclosely":2676,"Ġpictures":2677,"Ġwalked":2678,"Ġstarted":2679,"Ġsolid":2680,"Ġpapers":2681,"Ġbusiness":2682,"Ġmodern":2683,"Ġtouch":2684,"lo":2685,"Ġwhar":2686,"Ġfilled":2687,"Ġmach":2688,"ask":2689,"ata":2690,"Ġhur":2691,"Ġears":2692,"Ġthir":2693,"seen":2694,"Ġfee":2695,"acked":2696,"Ġintell":2697,"Ġgrad":2698,"Ġstruct":2699,"Ġprov":2700,"ension":2701,"Ġdistinct":2702,"mbled":2703,"Ġthoughts":2704,"Ġcarved":2705,"Ġmarble":2706,"which":2707,"Ġinvestig":2708,"opean":2709,"Ġ192":2710,"ahum":2711,"Ġbeside":2712,"Ġnumber":2713,"Ġcollege":2714,"Ġpublic":2715,"aver":2716,"father":2717,"wood":2718,"Ġmother":2719,"ench":2720,"Ġpill":2721,"Ġlink":2722,"Ġghast":2723,"ĠTheir":2724,"Ġlean":2725,"Ġspread":2726,"Ġprop":2727,"Ġimage":2728,"Ġshapes":2729,"itting":2730,"Ġchaos":2731,"Ġbelieved":2732,"Ġmystery":2733,"Ġcircum":2734,"Ġexperience":2735,"hyth":2736,"Ġconnected":2737,"Ġveget":2738,"Ġservants":2739,"Ġfanci":2740,"ĠEdward":2741,"Ġcuriosity":2742,"gaunts":2743,"bl":2744,"ting":2745,"Ġwoman":2746,"Ġbaff":2747,"Ġpip":2748,"stem":2749,"Ġnotes":2750,"Ġvict":2751,"umed":2752,"asts":2753,"ush":2754,"ĠNahum":2755,"opes":2756,"Ġseek":2757,"Ġentire":2758,"Ġtrip":2759,"Ġcorner":2760,"Ġfurther":2761,"forth":2762,"Ġprofound":2763,"Ġceased":2764,"Ġhaunted":2765,"Ġbreak":2766,"So":2767,"bly":2768,"com":2769,"ky":2770,"Ġtun":2771,"Ġbed":2772,"Ġburn":2773,"Ġeast":2774,"Ġecho":2775,"Ġstory":2776,"oused":2777,"Ġvac":2778,"Ġvap":2779,"Ġvivid":2780,"oresc":2781,"Ġalthough":2782,"Ġtruth":2783,"Ġblue":2784,"ables":2785,"Ġquality":2786,"Ġtwenty":2787,"Ġimpression":2788,"Ġaccom":2789,"Ġconsider":2790,"Ġmarve":2791,"while":2792,"Ġsystem":2793,"iveness":2794,"Ġorgan":2795,"ĠBlake":2796,"ored":2797,"vings":2798,"yd":2799,"Ġ(":2800,"Ġfly":2801,"arl":2802,"arre":2803,"Ġpale":2804,"entle":2805,"Ġrevel":2806,"acles":2807,"Ġstir":2808,"Ġultimate":2809,"irt":2810,"Ġfellow":2811,"aze":2812,"Ġminds":2813,"Ġburst":2814,"Ġforest":2815,"Ġsquare":2816,"Ġsymb":2817,"aughter":2818,"Ġfallen":2819,"Ġexistence":2820,"sych":2821,"Ġmentioned":2822,"Ġpaused":2823,",\"":2824,"II":2825,"aim":2826,"bs":2827,"ipped":2828,"ran":2829,"ses":2830,"yx":2831,"Ġsides":2832,"Ġfish":2833,"Ġmort":2834,"atural":2835,"Ġnon":2836,"Ġgod":2837,"ctic":2838,"Ġvain":2839,"ĠWas":2840,"Ġouter":2841,"Ġclaw":2842,"Ġdidn":2843,"place":2844,"Ġmighty":2845,"Ġremark":2846,"Ġformul":2847,"Ġattention":2848,"onscious":2849,"Ġreality":2850,"Ġactually":2851,"Ġburied":2852,"soci":2853,"Ġshadows":2854,"Ġedge":2855,"Ġdisturbed":2856,"Ġpaper":2857,"Ġvault":2858,"Ġhistory":2859,"Ġidea":2860,"Ġincredible":2861,".,":2862,"oll":2863,"oved":2864,"Ġbit":2865,"Ġcaught":2866,"Ġmaking":2867,"arse":2868,"asc":2869,"Ġgle":2870,"Ġgig":2871,"Ġbearing":2872,"Ġthird":2873,"enth":2874,"Ġstar":2875,"Ġmeant":2876,"Ġunre":2877,"Ġfever":2878,"ĠOl":2879,"els":2880,"izarre":2881,"Ġstrangely":2882,"Ġlooking":2883,"Ġvisions":2884,"Ġchair":2885,"Ġhighly":2886,"Ġchance":2887,"Ġdeterm":2888,"Ġwaters":2889,"Ġprofess":2890,"olesome":2891,"Ġpleas":2892,"Ġlanguage":2893,"Ġpurpose":2894,"ĠKadath":2895,"fort":2896,"lu":2897,"Ġtang":2898,"Ġwaves":2899,"Ġbizarre":2900,"Ġcave":2901,"Ġdawn":2902,"Ġge":2903,"iment":2904,"acing":2905,"Ġstorm":2906,"Ġonyx":2907,"Ġrising":2908,"olute":2909,"ĠSir":2910,"Ġconcl":2911,"Ġconvers":2912,"osp":2913,"osph":2914,"Ġleaving":2915,"Ġclot":2916,"Ġclut":2917,"Ġgrowing":2918,"abb":2919,"Ġprints":2920,"Ġapert":2921,"Ġrepres":2922,"Ġheads":2923,"Ġchanged":2924,"Ġexcited":2925,"Ġcarefully":2926,"Ġdevil":2927,"Ġmotion":2928,"Ġremembered":2929,"Ġcentury":2930,"Ġmidnight":2931,"Ġglimpsed":2932,"Ġmalign":2933,"uxet":2934,"osphoresc":2935,"For":2936,"af":2937,"oot":2938,"vidence":2939,"ycl":2940,"Ġur":2941,"Ġbase":2942,"atonic":2943,"Ġgentle":2944,"Ġstream":2945,"Ġstairs":2946,"Ġrhyth":2947,"Ġmechan":2948,"Ġneg":2949,"ĠMisk":2950,"elled":2951,"Ġdesper":2952,"ogether":2953,"icked":2954,"Ġphosphoresc":2955,"ready":2956,"Ġaction":2957,"Ġopening":2958,"Ġdepths":2959,"Ġwoods":2960,"Ġmagic":2961,"Ġrevealed":2962,"Ġspirit":2963,"Ġelectric":2964,"Ġbrief":2965,"respond":2966,"Ġtunnel":2967,"ĠMiskatonic":2968,"ls":2969,"mal":2970,"wich":2971,"Ġtaking":2972,"Ġfair":2973,"ingu":2974,"org":2975,"orous":2976,"Ġdamp":2977,"Ġpaint":2978,"ashed":2979,"Ġinside":2980,"icult":2981,"omic":2982,"Ġrequ":2983,"Ġstro":2984,"Ġval":2985,"Ġvent":2986,"Ġaband":2987,"Ġstrugg":2988,"Ġlove":2989,"ĠPer":2990,"ĠEl":2991,"Ġspecial":2992,"Ġmock":2993,"mbers":2994,"Ġrooms":2995,"Ġcorrespond":2996,"ixt":2997,"Ġfurt":2998,"mitted":2999,"Ġcastle":3000,"Ġsummer":3001,"Ġdaemon":3002,"Ġmessage":3003,"Ġgardens":3004,"Ġocean":3005,"Ġgigantic":3006,"'ve":3007,"de":3008,"Ġign":3009,"Ġtale":3010,"Ġwaking":3011,"Ġcap":3012,"Ġcause":3013,"enath":3014,"Ġpath":3015,"Ġlat":3016,"Ġwaste":3017,"hern":3018,"Ġunb":3019,"ĠSu":3020,"uscript":3021,"Ġquarter":3022,"ĠPo":3023,"Ġcoff":3024,"ĠJerm":3025,"Ġcarried":3026,"Ġchant":3027,"Ġdecad":3028,"Ġcolour":3029,"Ġmatters":3030,"ĠAllen":3031,"ceeded":3032,"ĠProvidence":3033,"ĠEngland":3034,"Ġradi":3035,"ĠDanforth":3036,"!\"":3037,"ean":3038,"zy":3039,"Ġast":3040,"rehen":3041,"Ġbal":3042,"Ġbird":3043,"Ġcand":3044,"Ġmould":3045,"arily":3046,"Ġpot":3047,"Ġinstr":3048,"Ġlore":3049,"Ġgall":3050,"Ġeight":3051,"Ġrange":3052,"Ġforced":3053,"Ġseized":3054,"Ġunseen":3055,"ager":3056,"Ġoutl":3057,"Ġknock":3058,"Ġplate":3059,"ĠPe":3060,"ĠEven":3061,"ogly":3062,"Ġhoriz":3063,"Ġchim":3064,"Ġways":3065,"eyed":3066,"rossed":3067,"Ġcavern":3068,"Ġmarvel":3069,"Ġstudied":3070,"Ġdifficult":3071,"ierogly":3072,"Ġshewed":3073,"dle":3074,"sm":3075,"Ġsit":3076,"reed":3077,"Ġcross":3078,"Ġmixed":3079,"ency":3080,"Ġpsych":3081,"Ġinqu":3082,"oms":3083,"Ġgen":3084,"ids":3085,"etr":3086,"Ġrough":3087,"Ġseven":3088,"Ġunex":3089,"ume":3090,"istak":3091,"Ġsomehow":3092,"Ġgrass":3093,"apid":3094,"Ġloft":3095,"ĠDe":3096,"ples":3097,"Ġpract":3098,"Ġspecul":3099,"Ġpock":3100,"Ġpartly":3101,"Ġcertainly":3102,"Ġbackground":3103,"ancing":3104,"Ġunderstand":3105,"ubb":3106,"Ġwritten":3107,"Ġuncann":3108,"Ġphot":3109,"Ġbroad":3110,"Ġmemories":3111,"Ġfolks":3112,"Ġbuildings":3113,"Ġadded":3114,"Ġrepeated":3115,"Ġmercha":3116,"Ġstranger":3117,"Ġstretched":3118,"Ġquickly":3119,"ĠDenis":3120,"Ġarchaic":3121,"Ġthunder":3122,"Ġsuccess":3123,"ares":3124,"bor":3125,"gress":3126,"ks":3127,"Ġsick":3128,"reen":3129,"Ġcop":3130,"Ġfung":3131,"Ġfasc":3132,"Ġma":3133,"arctic":3134,"Ġetern":3135,"Ġrise":3136,"Ġassoci":3137,"uments":3138,"Ġshow":3139,"Ġshut":3140,"agon":3141,"awt":3142,"Ġlocked":3143,"uding":3144,"Ġdiss":3145,"Ġjud":3146,"Ġperil":3147,"ĠOnly":3148,"teen":3149,"Ġcarvings":3150,"Ġcontr":3151,"Ġentity":3152,"Ġsubject":3153,"ĠArab":3154,"Ġmoonlight":3155,"Ġstead":3156,"Ġemer":3157,"ology":3158,"Ġclimbed":3159,"Ġmarked":3160,"arceline":3161,"Ġantique":3162,"Ġcondition":3163,"yram":3164,"ĠEnglish":3165,"Ġblasphemous":3166,"This":3167,"Ġsafe":3168,"yclopean":3169,"ĠJermyn":3170,"kind":3171,"inn":3172,"Ġfast":3173,"Ġmain":3174,"Ġmine":3175,"Ġpuzz":3176,"Ġhierogly":3177,"Ġgar":3178,"stairs":3179,"Ġstench":3180,"ays":3181,"Ġnotice":3182,"Ġalready":3183,"ĠMar":3184,"igious":3185,"Ġtrying":3186,"ĠBar":3187,"Ġlie":3188,"Ġprocess":3189,"Ġages":3190,"Ġslant":3191,"ountered":3192,"Ġpoints":3193,"Ġearli":3194,"Ġprecip":3195,"Ġdecl":3196,"azing":3197,"Ġdiscovered":3198,"Ġinstead":3199,"Ġeffort":3200,"Ġneeded":3201,"Ġdefinite":3202,"Ġabysses":3203,"Ġhardly":3204,"chool":3205,"Ġfarmhouse":3206,"Ġdreaded":3207,"Ġcenturies":3208,"Ġspectral":3209,"Ġslightly":3210,"ĠBrown":3211,"Ġdamn":3212,"Ġempty":3213,"Ġunmistak":3214,"Ġfancied":3215,"awtuxet":3216,"'m":3217,"bable":3218,"gone":3219,"was":3220,"Ġaout":3221,"iny":3222,"erve":3223,"Ġbones":3224,"Ġcrossed":3225,"Ġmiles":3226,"inged":3227,"llent":3228,"anity":3229,"Ġloud":3230,"omen":3231,"Ġgetting":3232,"ster":3233,"Ġthro":3234,"vey":3235,"add":3236,"Ġask":3237,"iling":3238,"arding":3239,"Ġunus":3240,"ĠHow":3241,"Ġplaced":3242,"Ġtrouble":3243,"Ġblast":3244,"Ġisland":3245,"ĠHere":3246,"Ġspell":3247,"Ġobl":3248,"Ġdreamed":3249,"Ġterrif":3250,"Ġknows":3251,"Ġprec":3252,"mbling":3253,"Ġresolved":3254,"ording":3255,"Ġsurround":3256,"Ġusual":3257,"Ġapart":3258,"Ġdiscus":3259,"Ġwrote":3260,"Ġpersist":3261,"Ġstudies":3262,"Ġextreme":3263,"ugs":3264,"ĠUlt":3265,"raid":3266,"mitage":3267,"Ġabsolute":3268,"Ġfeeling":3269,"Ġ191":3270,"Ġencountered":3271,"iversity":3272,"Ġstreng":3273,"Ġvictim":3274,"Ġaperture":3275,"Ġrhythm":3276,"Ġplateau":3277,"Ġwit":3278,"Ġbare":3279,"Ġfit":3280,"Ġpatter":3281,"Ġpanic":3282,"Ġgas":3283,"Ġbearded":3284,"Ġheaven":3285,"Ġrain":3286,"Ġdem":3287,"Ġdeal":3288,"osing":3289,"Ġmankind":3290,"ĠPawtuxet":3291,"Ġseems":3292,"Ġscattered":3293,"Ġglance":3294,"ĠLeng":3295,"ĠRe":3296,"inking":3297,"Ġdraw":3298,"Ġendless":3299,"Ġcorp":3300,"Ġguide":3301,"Ġwriting":3302,"Ġacqu":3303,"Ġregular":3304,"Ġcreature":3305,"Ġdropped":3306,"Ġlistened":3307,"ylind":3308,"Ġphysical":3309,"Ġsimple":3310,"Ġanimal":3311,"Ġdiscovery":3312,"Ġsignificance":3313,"Ġpursu":3314,"Ġsepar":3315,"Ġinexplic":3316,"Ġfeeble":3317,"ho":3318,"ike":3319,"ium":3320,"ton":3321,"Ġiv":3322,"het":3323,"erred":3324,"had":3325,"Ġcou":3326,"Ġcott":3327,"enced":3328,"orough":3329,"Ġpan":3330,"Ġhinted":3331,"Ġgalley":3332,"Ġbew":3333,"ĠTr":3334,"Ġdeli":3335,"Ġdemon":3336,"olution":3337,"Ġunp":3338,"ĠSh":3339,"Ġneither":3340,"ĠMart":3341,"ĠMarceline":3342,"Ġnoise":3343,"ĠOther":3344,"Ġworst":3345,"Ġproper":3346,"ĠNec":3347,"Ġafraid":3348,"Ġdescript":3349,"Ġmoving":3350,"Ġrecent":3351,"Ġmonths":3352,"ĠThose":3353,"Ġvision":3354,"iverse":3355,"ĠAsenath":3356,"ext":3357,"Ġexplain":3358,"Ġabsence":3359,"Ġiron":3360,"mend":3361,"Ġchildren":3362,"Ġphysic":3363,"Ġperfect":3364,"Ġaltogether":3365,"Ġglimpse":3366,"Ġsculptures":3367,"Ġgulfs":3368,"Ġbreath":3369,"THE":3370,"Ġconcerning":3371,"Ġmissing":3372,"Ġimpressions":3373,"Ġnecessary":3374,"Ġshunned":3375,"Ġfashion":3376,"Ġconversation":3377,"ĠUlthar":3378,"00":3379,"hold":3380,"over":3381,"Ġtent":3382,"Ġaid":3383,"Ġsac":3384,"Ġsong":3385,"Ġdiz":3386,"Ġdang":3387,"Ġdata":3388,"owers":3389,"sequ":3390,"Ġfort":3391,"Ġatte":3392,"ify":3393,"ĠSl":3394,"ĠMost":3395,"usted":3396,"Ġwhence":3397,"orted":3398,"ĠDun":3399,"ĠGods":3400,"Ġbold":3401,"mbl":3402,"ailing":3403,"Ġinflu":3404,"Ġpersons":3405,"Ġcommun":3406,"Ġapproached":3407,"Ġincreas":3408,"Ġincreased":3409,"Ġlonely":3410,"Ġdetails":3411,"Ġthirty":3412,"Ġmarvell":3413,"form":3414,"Ġsane":3415,"rest":3416,"Ġcylind":3417,"Ġfiend":3418,"Ġdare":3419,"Ġinha":3420,"Ġnort":3421,"Ġhum":3422,"ĠIs":3423,"Ġheart":3424,"Ġhence":3425,"utes":3426,"Ġstair":3427,"Ġvirt":3428,"ĠWar":3429,"Ġshot":3430,"cies":3431,"Ġloaths":3432,"Ġproport":3433,"Ġbright":3434,"ogs":3435,"Ġglow":3436,"Ġslopes":3437,"Ġimposs":3438,"Ġdrawn":3439,"Ġhollow":3440,"Ġsilver":3441,"Ġemot":3442,"Ġextr":3443,"Ġinterv":3444,"Ġantarctic":3445,"Ġrecords":3446,"Ġfragment":3447,"Ġoccasional":3448,"ronomic":3449,"athered":3450,"Ġobviously":3451,"Ġparticular":3452,"Ġteleph":3453,"Ġstrength":3454,"ĠNecronomic":3455,"ĠNecronomicon":3456,"come":3457,"pers":3458,"uary":3459,"yarl":3460,"Ġtur":3461,"Ġauth":3462,"Ġwitch":3463,"erby":3464,"Ġfailed":3465,"Ġmount":3466,"enes":3467,"Ġpost":3468,"Ġpair":3469,"Ġling":3470,"Ġlot":3471,"Ġlaid":3472,"Ġhints":3473,"lend":3474,"Ġgn":3475,"otep":3476,"Ġrats":3477,"ames":3478,"Ġann":3479,"uls":3480,"Ġsum":3481,"Ġyaw":3482,"ational":3483,"ĠHad":3484,"osop":3485,"ĠMay":3486,"Ġclass":3487,"Ġaged":3488,"Ġagreed":3489,"athotep":3490,"Ġpray":3491,"Ġkilled":3492,"anek":3493,"Ġrelief":3494,"Ġready":3495,"Ġreading":3496,"Ġinsane":3497,"Ġinstinct":3498,"Ġdelic":3499,"Ġclimb":3500,"Ġfigures":3501,"Ġprodigious":3502,"Ġtitan":3503,"Ġmusic":3504,"Ġshuddered":3505,"Ġmillion":3506,"Ġobtained":3507,"Ġcharacter":3508,"Ġstructure":3509,"Ġpiping":3510,"apped":3511,"bo":3512,"cing":3513,"do":3514,"ghed":3515,"nal":3516,"rance":3517,"time":3518,"Ġer":3519,"Ġtest":3520,"Ġsav":3521,"eral":3522,"Ġbank":3523,"Ġfate":3524,"Ġmir":3525,"Ġdiv":3526,"Ġlumin":3527,"Ġhung":3528,"Ġhate":3529,"Ġbear":3530,"Ġeager":3531,"Ġstation":3532,"eth":3533,"Ġratt":3534,"Ġrapid":3535,"Ġmyth":3536,"Ġuns":3537,"owned":3538,"osite":3539,"ivered":3540,"eping":3541,"Ġarri":3542,"aping":3543,"Ġloose":3544,"ĠPh":3545,"Ġgreatest":3546,"ĠEarth":3547,"Ġslab":3548,"Ġlikewise":3549,"ĠLe":3550,"there":3551,"ĠKings":3552,"Ġtelling":3553,"Ġtremend":3554,"Ġsuggested":3555,"Ġsuggestion":3556,"Ġsenses":3557,"Ġexisted":3558,"Ġdrove":3559,"Ġeasy":3560,"Ġspring":3561,"ĠWilbur":3562,"Ġreceived":3563,"Ġfabulous":3564,"Ġbridge":3565,"gypt":3566,"Ġbrooding":3567,"yarlathotep":3568,"Of":3569,"app":3570,"een":3571,"hu":3572,"yard":3573,"Ġtree":3574,"inity":3575,"Ġwings":3576,"orial":3577,"arian":3578,"Ġlines":3579,"Ġhoped":3580,"Ġthorough":3581,"Ġhealth":3582,"aming":3583,"ilar":3584,"Ġunl":3585,"ums":3586,"Ġshout":3587,"Ġmansion":3588,"une":3589,"Ġcrude":3590,"Ġdescent":3591,"ĠRace":3592,"ivable":3593,"anged":3594,"Ġresult":3595,"Ġevent":3596,"Ġworlds":3597,"Ġregions":3598,"Ġlands":3599,"Ġdetect":3600,"Ġbroke":3601,"Ġquestions":3602,"Ġwait":3603,"Ġfriends":3604,"ĠMrs":3605,"Ġmagn":3606,"Ġdiary":3607,"Ġperform":3608,"Ġfifty":3609,"ĠOrne":3610,"Ġunnatural":3611,"Ġcolumns":3612,"Ġinformation":3613,"Ġintellig":3614,"Ġauthor":3615,"After":3616,"We":3617,"after":3618,"gu":3619,"gain":3620,"jo":3621,"Ġtext":3622,"Ġfil":3623,"Ġfren":3624,"Ġlan":3625,"Ġhon":3626,"Ġhabit":3627,"alone":3628,"Ġexceed":3629,"Ġspent":3630,"ĠObed":3631,"Ġworse":3632,"Ġpros":3633,"rying":3634,"Ġsubstance":3635,"ĠArmitage":3636,"Ġrealm":3637,"Ġrealized":3638,"Ġwrong":3639,"Ġhideously":3640,"Ġslept":3641,"Ġfinding":3642,"Ġtemp":3643,"Ġdisturbing":3644,"yrin":3645,"Ġraised":3646,"Ġsuperst":3647,"Ġdescended":3648,"Ġanswer":3649,"Ġbeginning":3650,"Ġgroup":3651,"Ġcorridor":3652,"Ġposition":3653,"Ġgradually":3654,"Ġearlier":3655,"Ġloathsome":3656,"apping":3657,"cle":3658,"row":3659,"rical":3660,"with":3661,"zen":3662,"Ġaer":3663,"Ġwan":3664,"oning":3665,"Ġpha":3666,"Ġparent":3667,"Ġlack":3668,"Ġbeard":3669,"Ġec":3670,"Ġuniverse":3671,"ĠShant":3672,"Ġexha":3673,"aste":3674,"ĠMer":3675,"Ġarms":3676,"Ġprove":3677,"Ġflame":3678,"ĠEx":3679,"ensions":3680,"Ġsheer":3681,"Ġsmell":3682,"Ġevents":3683,"Ġsubter":3684,"Ġchamber":3685,"ibility":3686,"Ġinfinitely":3687,"Ġharbour":3688,"Ġcoloss":3689,"Ġdeeply":3690,"Ġcentral":3691,"Ġamongst":3692,"ugust":3693,"Ġforeign":3694,"Ġbelief":3695,"hemical":3696,"Ġcircle":3697,"Ġcommenced":3698,"Ġconnect":3699,"uffled":3700,"Ġshadowy":3701,"Ġordinary":3702,"Ġoriginal":3703,"meric":3704,"Ġdestro":3705,"Ġfrequent":3706,"Ġdisappeared":3707,"Ġneighb":3708,"chers":3709,"Ġnearer":3710,"ĠPerhaps":3711,"Ġpocket":3712,"Ġmarvellous":3713,"hor":3714,"io":3715,"iant":3716,"ince":3717,"once":3718,"Ġdig":3719,"Ġped":3720,"Ġpress":3721,"asy":3722,"Ġhither":3723,"Ġgained":3724,"Ġstu":3725,"Ġring":3726,"ading":3727,"Ġvist":3728,"ribly":3729,"Ġsuc":3730,"Ġunlike":3731,"ĠCl":3732,"Ġmanuscript":3733,"Ġtroub":3734,"ĠBy":3735,"ĠOut":3736,"aks":3737,"Ġlock":3738,"ĠNe":3739,"ĠNyarlathotep":3740,"ĠDerby":3741,"ĠEgypt":3742,"Ġdesol":3743,"Ġwherein":3744,"Ġcob":3745,"Ġchief":3746,"Ġlightning":3747,"Ġfirm":3748,"erence":3749,"Ġmostly":3750,"Ġaccording":3751,"Ġunderground":3752,"henomen":3753,"Ġsays":3754,"alem":3755,"bris":3756,"Ġexplan":3757,"Ġlargely":3758,"Ġlabyrin":3759,"Ġexperien":3760,"Ġbarri":3761,"Ġmesseng":3762,"Ġcompletely":3763,"Ġreflected":3764,"Ġfields":3765,"Ġdevelop":3766,"Ġdescribe":3767,"Ġghastly":3768,"Ġfurtive":3769,"Ġuncanny":3770,"Ġbewild":3771,"Ġimpossible":3772,"All":3773,"ially":3774,"work":3775,"Ġsor":3776,"Ġwound":3777,"eds":3778,"Ġbark":3779,"Ġcro":3780,"Ġfat":3781,"arg":3782,"Ġpause":3783,"Ġphenomen":3784,"Ġhom":3785,"Ġgather":3786,"Ġwhir":3787,"Ġstop":3788,"eter":3789,"Ġrare":3790,"amps":3791,"Ġforward":3792,"Ġnoted":3793,"ĠAmeric":3794,"Ġmeas":3795,"Ġsusp":3796,"ĠSm":3797,"ĠSouth":3798,"Ġconject":3799,"Ġbygone":3800,"oses":3801,"Ġcouldn":3802,"oking":3803,"Ġsplend":3804,"akes":3805,"ĠGe":3806,"Ġcomb":3807,"Ġgreatly":3808,"Ġcover":3809,"Ġtwisted":3810,"Ġpeace":3811,"Ġsmoke":3812,"Ġevidence":3813,"Ġbelong":3814,"struct":3815,"Ġvoid":3816,"eeden":3817,"otting":3818,"Ġreluct":3819,"Ġhelped":3820,"ĠZo":3821,"Ġseries":3822,"Ġeasily":3823,"Ġlimit":3824,"Ġstanding":3825,"Ġarrange":3826,"Ġarmy":3827,"Ġgrandfather":3828,"ĠSomething":3829,"Ġoutlines":3830,"Ġhieroglyph":3831,"Ġunusual":3832,"ĠKingsport":3833,"ez":3834,"uation":3835,"wr":3836,"Ġaver":3837,"Ġbig":3838,"aries":3839,"Ġphant":3840,"lling":3841,"Ġhat":3842,"Ġhang":3843,"stead":3844,"Ġhearing":3845,"Ġrepl":3846,"Ġones":3847,"Ġweak":3848,"Ġrout":3849,"Ġself":3850,"Ġvital":3851,"room":3852,"ĠAugust":3853,"Ġdebris":3854,"ĠSalem":3855,"ĠCyclopean":3856,"ĠHouse":3857,"Ġnois":3858,"Ġmanif":3859,"Ġmanaged":3860,"Ġplun":3861,"Ġclust":3862,"oken":3863,"Ġlies":3864,"Ġimages":3865,"ĠIts":3866,"ĠDes":3867,"Ġovert":3868,"Ġprison":3869,"izens":3870,"Ġoffic":3871,"Ġdoorway":3872,"Ġentities":3873,"Ġworked":3874,"Ġdeeper":3875,"Ġcentre":3876,"Ġtemples":3877,"Ġrocks":3878,"ĠVer":3879,"Ġdimensions":3880,"Ġwax":3881,"Ġfalling":3882,"Ġplainly":3883,"Ġmerc":3884,"Ġproduced":3885,"Ġaltar":3886,"Ġmeaning":3887,"Ġelement":3888,"Ġdeveloped":3889,"Ġcliffs":3890,"Ġvacant":3891,"ĠOlney":3892,"Ġabandoned":3893,"Ġinexplicable":3894,"Ġstairc":3895,"ded":3896,"fess":3897,"ique":3898,"wixt":3899,"Ġess":3900,"Ġtight":3901,"inx":3902,"inable":3903,"Ġwire":3904,"hand":3905,"Ġcust":3906,"itary":3907,"Ġdut":3908,"Ġpall":3909,"Ġlaw":3910,"Ġlamp":3911,"Ġhot":3912,"Ġhes":3913,"acy":3914,"Ġstay":3915,"Ġstories":3916,"Ġsem":3917,"ilosop":3918,"ulhu":3919,"thulhu":3920,"illy":3921,"Ġdelight":3922,"ĠWeeden":3923,"ĠHer":3924,"Ġshiver":3925,"Ġshining":3926,"Ġplane":3927,"Ġspl":3928,"Ġlips":3929,"Ġloomed":3930,"Ġflood":3931,"ĠPr":3932,"Ġthrong":3933,"Ġscenes":3934,"Ġprin":3935,"Ġenorm":3936,"ĠRoman":3937,"igned":3938,"pses":3939,"ĠThough":3940,"Ġadm":3941,"Ġswift":3942,"Ġunconscious":3943,"Ġawake":3944,"ĠYet":3945,"Ġextent":3946,"Ġwhispers":3947,"Ġartic":3948,"Ġprimitive":3949,"Ġscreaming":3950,"Ġorganic":3951,"Ġpriests":3952,"Ġtradition":3953,"Ġsailors":3954,"Ġconsiderable":3955,"Ġdetermined":3956,"Ġmaj":3957,"Ġcorpse":3958,"Ġmanifest":3959,"You":3960,"ele":3961,"fr":3962,"fit":3963,"my":3964,"rous":3965,"she":3966,"yer":3967,"hered":3968,"Ġsch":3969,"eded":3970,"Ġbent":3971,"Ġfail":3972,"Ġmound":3973,"Ġmists":3974,"orge":3975,"arm":3976,"aten":3977,"acted":3978,"Ġstark":3979,"Ġstumbled":3980,"Ġforget":3981,"irst":3982,"Ġsev":3983,"Ġconqu":3984,"ĠCertain":3985,"ĠHall":3986,"Ġshook":3987,"ĠMalone":3988,"Ġspoken":3989,"ĠNgr":3990,"lessness":3991,"urnal":3992,"Ġglim":3993,"They":3994,"Ġlikely":3995,"ĠLat":3996,"ensive":3997,"Ġdreaming":3998,"ĠInqu":3999,"Ġshelves":4000,"ials":4001,"eren":4002,"Ġvisited":4003,"Ġdecay":4004,"Ġthinking":4005,"Ġnative":4006,"Ġbehold":4007,"Ġexped":4008,"Ġexplore":4009,"Ġcryst":4010,"Ġsuggestions":4011,"Ġghoulish":4012,"Ġcommand":4013,"Ġsupply":4014,"Ġscreamed":4015,"Ġlisten":4016,"Ġconditions":4017,"Ġsomewhere":4018,"Ġweeks":4019,"Ġtype":4020,"Ġbulk":4021,"Ġfrequently":4022,"Ġdisappear":4023,"Ġobserved":4024,"Ġpossessed":4025,"Ġtracks":4026,"Ġdesigns":4027,"Ġsuspected":4028,"Ġimmediate":4029,"Ġvegetation":4030,"Ġbaffling":4031,"ydam":4032,"Ġflying":4033,"Ġignor":4034,"fessor":4035,"Ġhesit":4036,"ĠNgranek":4037,"hn":4038,"lore":4039,"Ġomin":4040,"Ġsout":4041,"Ġschool":4042,"erves":4043,"Ġburned":4044,"Ġcab":4045,"Ġciv":4046,"Ġfav":4047,"Ġmur":4048,"oric":4049,"oration":4050,"Ġdull":4051,"anok":4052,"Ġlately":4053,"stone":4054,"uted":4055,"utch":4056,"iments":4057,"Ġrear":4058,"Ġrever":4059,"acc":4060,"acle":4061,"urally":4062,"Ġrail":4063,"ads":4064,"Ġsend":4065,"--\"":4066,"rod":4067,"thur":4068,"Ġyard":4069,"Ġabrupt":4070,"ĠHarr":4071,"ushing":4072,"usions":4073,"Ġupward":4074,"Ġclos":4075,"Ġtrail":4076,"Ġtraces":4077,"Ġgray":4078,"Ġgrown":4079,"Ġaroused":4080,"Ġrope":4081,"Ġprogress":4082,"Ġscrap":4083,"Ġcraz":4084,"Ġcoast":4085,"Ġamount":4086,"Ġremains":4087,"Ġ16":4088,"Ġdoors":4089,"Ġrealised":4090,"ibr":4091,"Ġuncom":4092,"Ġsquat":4093,"Ġwaited":4094,"Ġruin":4095,"Ġsensation":4096,"Ġdrive":4097,"Ġminute":4098,"Ġmiddle":4099,"Ġcrawling":4100,"Ġidentity":4101,"Ġexactly":4102,"Ġaeons":4103,"ranon":4104,"Ġphotograph":4105,"ĠDunwich":4106,"Ġcolossal":4107,"ĠInquanok":4108,"?\"":4109,"ban":4110,"ding":4111,"go":4112,"mem":4113,"Ġtong":4114,"Ġsway":4115,"Ġwin":4116,"Ġwise":4117,"Ġbol":4118,"Ġcit":4119,"Ġchemical":4120,"Ġfer":4121,"Ġmis":4122,"Ġdry":4123,"Ġpond":4124,"Ġpinn":4125,"Ġnamed":4126,"aling":4127,"otted":4128,"iding":4129,"uranes":4130,"Ġrim":4131,"road":4132,"ils":4133,"ribut":4134,"Ġexte":4135,"Ġshone":4136,"usk":4137,"using":4138,"Ġnoon":4139,"Ġnoct":4140,"Ġtrain":4141,"Ġtruly":4142,"Ġgrim":4143,"ops":4144,"Ġshaft":4145,"Ġperce":4146,"izard":4147,"ĠLater":4148,"ĠRom":4149,"Ġcurse":4150,"Ġwinds":4151,"Ġremain":4152,"Ġremoved":4153,"Ġlighted":4154,"Ġfooth":4155,"Ġkeen":4156,"Ġaccess":4157,"Ġapprehen":4158,"Ġadj":4159,"Ġfloated":4160,"Ġawes":4161,"Ġcolon":4162,"ception":4163,"Ġdepth":4164,"Ġwooden":4165,"pril":4166,"prints":4167,"Ġexcit":4168,"Ġartific":4169,"Ġtransf":4170,"Ġdirectly":4171,"Ġdelir":4172,"Ġimagine":4173,"Ġpowers":4174,"Ġdisturb":4175,"Ġgreenish":4176,"Ġelsewhere":4177,"ĠProfessor":4178,"Ġpatient":4179,"Ġprevious":4180,"Ġspecimen":4181,"Ġavoid":4182,"Ġcalm":4183,"Ġanswered":4184,"Ġmonstros":4185,"Ġdiscover":4186,"Ġappearance":4187,"Ġantiquity":4188,"ĠUniversity":4189,"Ġmysterious":4190,"Ġflashlight":4191,"Ġwharves":4192,"Ġsymbol":4193,"aimed":4194,"Ġclothing":4195,"Ġfairly":4196,"ĠSuydam":4197,"Ġaston":4198,"Ġphysician":4199,"mblance":4200,"Ġexceedingly":4201,"Ġschol":4202,"',":4203,"What":4204,"cr":4205,"fall":4206,"olet":4207,"val":4208,"Ġ3":4209,"inated":4210,"Ġsad":4211,"Ġsanity":4212,"rep":4213,"Ġbull":4214,"Ġbung":4215,"Ġcy":4216,"Ġfine":4217,"Ġmood":4218,"Ġmult":4219,"Ġmaster":4220,"orph":4221,"Ġlad":4222,"Ġnause":4223,"Ġgathered":4224,"Ġstore":4225,"Ġanaly":4226,"Ġvig":4227,"ĠAgain":4228,"umes":4229,"Ġabhor":4230,"nted":4231,"Ġupstairs":4232,"Ġnoises":4233,"Ġplayed":4234,"Ġstra":4235,"unk":4236,"Ġworn":4237,"Ġdisg":4238,"ĠEvery":4239,"Ġglac":4240,"Ġhorse":4241,"Ġhorribly":4242,"rys":4243,"Ġpointed":4244,"Ġdragged":4245,"ĠKing":4246,"Ġdiscour":4247,"Ġharm":4248,"mont":4249,"Ġbetwixt":4250,"Ġwatching":4251,"Ġrested":4252,"clock":4253,"Ġqueerly":4254,"Ġcatch":4255,"Ġcareful":4256,"Ġartist":4257,"Ġadvent":4258,"Ġadvanced":4259,"Ġsuppose":4260,"Ġwarning":4261,"Ġmotor":4262,"Ġinterested":4263,"Ġviolet":4264,"Ġpriv":4265,"Ġsurely":4266,"Ġmonster":4267,"ĠNorth":4268,"Ġswept":4269,"Ġrespons":4270,"illinghast":4271,"Ġcorridors":4272,"Ġdegree":4273,"Ġjoined":4274,"Ġrites":4275,"Ġritual":4276,"regular":4277,"Ġcoffin":4278,"Ġeternal":4279,"Ġdeliber":4280,"Ġdescription":4281,"Ġdelicate":4282,"Ġnoisome":4283,"Ġawesome":4284,"bert":4285,"dul":4286,"mn":4287,"rane":4288,"wall":4289,"Ġtreat":4290,"hel":4291,"hest":4292,"Ġaven":4293,"Ġbow":4294,"Ġfun":4295,"Ġfixed":4296,"Ġmutter":4297,"Ġdazed":4298,"asant":4299,"ator":4300,"Ġnerves":4301,"ĠIranon":4302,"Ġep":4303,"Ġthus":4304,"Ġwel":4305,"ĠTillinghast":4306,"Ġasse":4307,"Ġsealed":4308,"ainted":4309,"ĠApril":4310,"Ġmyths":4311,"Ġunwh":4312,"ĠCele":4313,"Ġplay":4314,"ĠOur":4315,"Ġwhenever":4316,"Ġdoes":4317,"Ġarc":4318,"Ġproject":4319,"ĠNature":4320,"eling":4321,"Ġdownward":4322,"Ġmenace":4323,"Ġrespect":4324,"Ġresults":4325,"ĠJuly":4326,"grown":4327,"Ġregarding":4328,"Ġcourt":4329,"Ġmoonbe":4330,"oubted":4331,"Ġmoments":4332,"Ġclean":4333,"iah":4334,"Ġtend":4335,"Ġexchan":4336,"Ġgenerally":4337,"Ġruined":4338,"Ġbasalt":4339,"Ġincluding":4340,"Ġfreely":4341,"Ġtravel":4342,"Ġstronger":4343,"ĠJoe":4344,"ĠJohn":4345,"Ġreports":4346,"Ġ176":4347,"Ġsettled":4348,"Ġequally":4349,"Ġrumours":4350,"Ġpiece":4351,"Ġrevol":4352,"phais":4353,"Ġlaugh":4354,"Ġlaughed":4355,"Ġpillars":4356,"Ġburning":4357,"ĠElwood":4358,"Ġinstruments":4359,"Ġhorizon":4360,"Ġlofty":4361,"Ġcottage":4362,"Ġsummon":4363,"Ġbarrier":4364,"ĠSmith":4365,"Ġenormous":4366,"ĠHarris":4367,"Ġnocturnal":4368,"ĠCelephais":4369,"fl":4370,"kin":4371,"lied":4372,"ners":4373,"off":4374,"sen":4375,"ule":4376,"wo":4377,"ye":4378,"Ġtaste":4379,"heard":4380,"heres":4381,"Ġcere":4382,"Ġcries":4383,"arly":4384,"Ġdie":4385,"Ġpop":4386,"asse":4387,"icated":4388,"Ġgiving":4389,"stances":4390,"ldom":4391,"Ġstag":4392,"Ġstuff":4393,"Ġrotting":4394,"Ġasce":4395,"Ġfrant":4396,"Ġseldom":4397,"essed":4398,"ulate":4399,"throp":4400,"Ġmel":4401,"Ġunple":4402,"Ġshift":4403,"agues":4404,"ĠMarch":4405,"Ġspaces":4406,"itect":4407,"ĠGreen":4408,"Ġjour":4409,"Ġchis":4410,"ĠRob":4411,"Ġcurt":4412,"Ġknowing":4413,"Ġdistingu":4414,"Ġdaylight":4415,"Ġfoet":4416,"Ġentrance":4417,"ĠArthur":4418,"Ġpreserved":4419,"Ġinfinite":4420,"Ġregret":4421,"Ġdetest":4422,"Ġsilently":4423,"rench":4424,"Ġplanes":4425,"iety":4426,"Ġdefinitely":4427,"Ġclimbing":4428,"Ġpeculiarly":4429,"Ġescaped":4430,"Ġtouched":4431,"Ġcryptic":4432,"Ġoccasionally":4433,"Ġlurking":4434,"Ġcompanion":4435,"Ġhyp":4436,"Ġopposite":4437,"Ġimportance":4438,"Ġmysteries":4439,"Ġimmediately":4440,"yramid":4441,"Ġthroat":4442,"Ġsavage":4443,"Ġdestroy":4444,"Ġpedest":4445,"Ġstaircase":4446,"eled":4447,"Ġut":4448,"Ġta":4449,"Ġtask":4450,"inations":4451,"Ġoper":4452,"Ġske":4453,"hal":4454,"Ġmuffled":4455,"Ġdil":4456,"Ġdate":4457,"Ġdusk":4458,"isen":4459,"Ġpure":4460,"Ġpushed":4461,"Ġpicked":4462,"ators":4463,"Ġloss":4464,"Ġnum":4465,"Ġgoss":4466,"alog":4467,"ional":4468,"iths":4469,"Ġseat":4470,"Ġmembers":4471,"Ġunw":4472,"ĠWal":4473,"Ġshud":4474,"Ġships":4475,"Ġleaped":4476,"oney":4477,"Ġtrap":4478,"cience":4479,"Ġgran":4480,"Ġgrasp":4481,"Ġlog":4482,"Ġfled":4483,"Ġimper":4484,"ĠGate":4485,"Ġbrown":4486,"Ġglo":4487,"icking":4488,"Ġchill":4489,"Ġdreamland":4490,"ittered":4491,"Ġseeing":4492,"Ġpoet":4493,"Ġresc":4494,"ĠKuranes":4495,"Ġreply":4496,"Ġinfinity":4497,"ĠAtal":4498,"Ġinsist":4499,"ĠWilli":4500,"Ġsleeping":4501,"Ġcreaking":4502,"Ġwaiting":4503,"Ġfaintly":4504,"Ġirregular":4505,"Ġfolklore":4506,"Ġdriven":4507,"Ġcomplex":4508,"Ġlistening":4509,"Ġsimilar":4510,"Ġstrangeness":4511,"Ġcheap":4512,"Ġcosmos":4513,"Ġpreviously":4514,"Ġrecognised":4515,"Ġtravell":4516,"Ġreported":4517,"Ġviolently":4518,"Ġcrawled":4519,"Ġsurviv":4520,"Ġfearsome":4521,"Ġneighbour":4522,"ĠAbdul":4523,"Ġpainted":4524,"Ġobvious":4525,"Ġautum":4526,"Ġnearest":4527,"Ġwanted":4528,"Ġcircumstance":4529,"Ġaccompl":4530,"Ġmortal":4531,"Ġfeverish":4532,"eanwhile":4533,"Ġbirds":4534,"Ġchimney":4535,"Ġinquir":4536,"Ġprecipit":4537,"Ġivory":4538,"Ġluminous":4539,"Ġtremendous":4540,"Ġparents":4541,"ĠZoogs":4542,"Ġmerciful":4543,"Ġominous":4544,"Ġbungal":4545,"Ġunwholesome":4546,"\"'":4547,"'re":4548,",'":4549,"ON":4550,"With":4551,"aved":4552,"bbed":4553,"dr":4554,"mp":4555,"mans":4556,"nes":4557,"oes":4558,"ping":4559,"pet":4560,"pir":4561,"sing":4562,"vis":4563,"what":4564,"ĠQ":4565,"Ġtiny":4566,"Ġain":4567,"Ġaud":4568,"Ġband":4569,"Ġfal":4570,"Ġfood":4571,"inging":4572,"Ġdance":4573,"Ġpier":4574,"asm":4575,"asons":4576,"atical":4577,"atched":4578,"anim":4579,"Ġlit":4580,"Ġlest":4581,"Ġgri":4582,"Ġgates":4583,"Ġgaze":4584,"Ġraid":4585,"Ġramb":4586,"irch":4587,"irth":4588,"Ġanxious":4589,"Ġsection":4590,"thy":4591,"odie":4592,"quiet":4593,"Ġunacc":4594,"inded":4595,"Ġabom":4596,"ĠCthulhu":4597,"anted":4598,"Ġshown":4599,"ustr":4600,"Ġgrace":4601,"ortun":4602,"Ġdisord":4603,"elling":4604,"oping":4605,"elie":4606,"Ġcool":4607,"perhaps":4608,"ĠFen":4609,"Ġchoked":4610,"Ġinconce":4611,"phinx":4612,"Ġsmo":4613,"Ġcontained":4614,"action":4615,"Ġappar":4616,"Ġrealms":4617,"ibb":4618,"Ġaccept":4619,"Ġphilosop":4620,"Ġhillside":4621,"Ġsaying":4622,"Ġpossibly":4623,"engu":4624,"herent":4625,"ĠUp":4626,"Ġinvol":4627,"Ġimmem":4628,"Ġlearn":4629,"Ġapproach":4630,"Ġpersonal":4631,"Ġturning":4632,"Ġcryptical":4633,"ĠBrattle":4634,"Ġshapeless":4635,"Ġarchitect":4636,"Ġcountryside":4637,"Ġdescend":4638,"Ġangles":4639,"Ġquietly":4640,"Ġconcerned":4641,"Ġsubtle":4642,"Ġaccompan":4643,"Ġformulae":4644,"Ġpotent":4645,"boro":4646,"Ġdizz":4647,"Ġfiendish":4648,"ĠIsland":4649,"Ġtelephone":4650,"Ġhitherto":4651,"Ġmessenger":4652,"Ġsuspic":4653,"Ġroute":4654,"Ġexpedition":4655,"Ġcivil":4656,"Ġperceived":4657,"Ġstraight":4658,"Ġfrantically":4659,"Ġnumerous":4660,"Ġbungalow":4661,"ĠBrattleboro":4662,"born":4663,"ee":4664,"folk":4665,"foot":4666,"great":4667,"hin":4668,"rant":4669,"Ġwore":4670,"Ġbatter":4671,"Ġfing":4672,"Ġfight":4673,"iture":4674,"Ġdue":4675,"Ġdaughter":4676,"Ġpengu":4677,"atus":4678,"Ġlake":4679,"omal":4680,"lement":4681,"Ġstick":4682,"Ġstaring":4683,"ette":4684,"Ġitem":4685,"Ġramp":4686,"Ġaside":4687,"ĠAf":4688,"ĠAm":4689,"Ġdeb":4690,"Ġdecip":4691,"ĠSphinx":4692,"usive":4693,"ĠMus":4694,"igid":4695,"Ġtrick":4696,"Ġintense":4697,"udden":4698,"Ġflashed":4699,"Ġdisquiet":4700,"ĠPl":4701,"ĠPres":4702,"ĠGer":4703,"ĠGugs":4704,"Ġcomes":4705,"Ġanyone":4706,"ĠEur":4707,"Ġslaves":4708,"Ġspeed":4709,"ĠFr":4710,"ĠFrench":4711,"Ġjagged":4712,"Ġboat":4713,"Ġsailed":4714,"Ġforming":4715,"Ġshel":4716,"Ġmonth":4717,"Ġmonol":4718,"Ġindef":4719,"ĠJust":4720,"Ġsubsequ":4721,"...\"":4722,"Ġvoy":4723,"Ġawe":4724,"ĠYork":4725,"Ġskill":4726,"Ġcalling":4727,"Ġwildly":4728,"Ġmystic":4729,"Ġsensitive":4730,"Ġmotions":4731,"Ġconnection":4732,"Ġmarks":4733,"Ġcease":4734,"spap":4735,"Ġshortly":4736,"Ġrecognized":4737,"Ġshrieked":4738,"Ġbadly":4739,"ĠNorrys":4740,"Ġimportant":4741,"Ġgroups":4742,"Ġdescribed":4743,"pendous":4744,"Ġestab":4745,"Ġsubtly":4746,"Ġechoes":4747,"Ġrevelation":4748,"Ġrepresented":4749,"Ġmechanical":4750,"Ġphosphorescent":4751,"Ġsituation":4752,"Ġmerchants":4753,"Ġsacrif":4754,"Ġinfluence":4755,"Ġhateful":4756,"Ġunlock":4757,"Ġvistas":4758,"Ġabruptly":4759,"Ġartificial":4760,"oubtedly":4761,"Ġgranite":4762,"uddenly":4763,"HE":4764,"bes":4765,"eenth":4766,"long":4767,"mosp":4768,"walk":4769,"Ġze":4770,"hether":4771,"inally":4772,"Ġshed":4773,"Ġwon":4774,"Ġbirth":4775,"Ġmoss":4776,"itation":4777,"isf":4778,"Ġpaw":4779,"Ġpaid":4780,"Ġtoad":4781,"atives":4782,"Ġliter":4783,"Ġbeast":4784,"acious":4785,"aches":4786,"Ġstep":4787,"Ġrav":4788,"Ġforces":4789,"Ġatmosp":4790,"Ġsup":4791,"ĠSha":4792,"ĠSarn":4793,"Ġconvey":4794,"Ġexce":4795,"ustomed":4796,"Ġnobody":4797,"Ġnoxious":4798,"Ġcler":4799,"ciety":4800,"abodie":4801,"Ġarg":4802,"Ġquar":4803,"Ġdism":4804,"Ġcrag":4805,"Ġdreamer":4806,"Ġdistr":4807,"Ġseeking":4808,"Ġincident":4809,"Ġkill":4810,"they":4811,"Ġattack":4812,"Ġnewspap":4813,"Ġended":4814,"Ġguarded":4815,"Ġwrite":4816,"Ġskull":4817,"Ġnatives":4818,"Ġinterior":4819,"Ġforever":4820,"Ġfury":4821,"Ġghost":4822,"unted":4823,"Ġleader":4824,"Ġcrew":4825,"Ġdimly":4826,"Ġabsurd":4827,"Ġcloudy":4828,"Ġdrop":4829,"Ġrepellent":4830,"Ġtitanic":4831,"Ġincluded":4832,"Ġbeautiful":4833,"Ġconvin":4834,"Ġaccounts":4835,"Ġresemblance":4836,"Ġanimals":4837,"Ġtyp":4838,"ĠIndeed":4839,"Ġancestors":4840,"shaped":4841,"Ġsuffic":4842,"ĠChr":4843,"Ġbridges":4844,"Ġcolumn":4845,"Ġengulf":4846,"Ġdisplayed":4847,"Ġpenetr":4848,"fortable":4849,"Ġclutched":4850,"Ġphosphorescence":4851,"Ġwitness":4852,"ĠMartense":4853,"Ġincreasing":4854,"ĠShantak":4855,"Ġstupendous":4856,"Ġsucceeded":4857,"ĠVermont":4858,"Ġfoothills":4859,"Ġceremon":4860,"Ġshudder":4861,"Ġsmooth":4862,"ĠSarnath":4863,"band":4864,"eh":4865,"even":4866,"iable":4867,"iently":4868,"lings":4869,"oe":4870,"oo":4871,"Â°":4872,"Ġaim":4873,"inning":4874,"Ġtheory":4875,"Ġsank":4876,"Ġwis":4877,"Ġwinged":4878,"ites":4879,"escri":4880,"Ġdense":4881,"Ġdying":4882,"Ġpred":4883,"Ġpaws":4884,"lls":4885,"llen":4886,"Ġlying":4887,"oted":4888,"Ġthou":4889,"sect":4890,"Ġreef":4891,"Ġwholesome":4892,"Ġstout":4893,"Ġrat":4894,"Ġrays":4895,"ades":4896,"ĠTown":4897,"Ġforty":4898,"Ġanomal":4899,"Ġven":4900,"Ġvort":4901,"rigg":4902,"ember":4903,"ĠSuch":4904,"ument":4905,"umble":4906,"Ġshivered":4907,"Ġalike":4908,"ĠMc":4909,"ĠMountain":4910,"Ġoutline":4911,"ĠBirch":4912,"Ġspires":4913,"ability":4914,"aph":4915,"Ġimpl":4916,"Ġdisapp":4917,"Ġafar":4918,"opl":4919,"ĠGu":4920,"Ġoverhead":4921,"ĠEli":4922,"Ġmadden":4923,"avag":4924,"Ġslim":4925,"ization":4926,"ĠLand":4927,"Ġcho":4928,"igny":4929,"Ġpreced":4930,"Ġcontro":4931,"Ġdrag":4932,"Ġenter":4933,"Ġadmit":4934,"Ġadmitted":4935,"Ġlandsc":4936,"Ġmeth":4937,"Ġinterp":4938,"Ġtalking":4939,"Ġcatac":4940,"Ġtowns":4941,"Ġimmense":4942,"Ġcontinu":4943,"Ġroads":4944,"Ġpolic":4945,"Ġwarm":4946,"Ġheavily":4947,"Ġaffected":4948,"Ġpriest":4949,"Ġdiam":4950,"Ġportent":4951,"Ġchest":4952,"ippo":4953,"Ġshrieking":4954,"useum":4955,"Ġhyster":4956,"Ġwestward":4957,"ounter":4958,"Ġmathem":4959,"Ġcharacters":4960,"Ġdomin":4961,"Ġpieces":4962,"Ġmedical":4963,"Ġconstantly":4964,"Ġfaith":4965,"Ġfurniture":4966,"Ġmachine":4967,"Ġvainly":4968,"Ġremarkable":4969,"ospital":4970,"Ġdesperate":4971,"Ġdifficulty":4972,"Ġgenu":4973,"ĠMarigny":4974,"Ġabsolutely":4975,"ĠSlater":4976,"Ġvirtually":4977,"Ġextravag":4978,"Ġintervals":4979,"Ġgnaw":4980,"Ġduty":4981,"Ġcrazy":4982,"Ġexcitement":4983,"Ġdisgust":4984,"Ġprivate":4985,"Ġautumn":4986,"Ġinconceivable":4987,"Ġimmemorial":4988,"ĠAfric":4989,"ĠMusides":4990,"Ab":4991,"Man":4992,"aout":4993,"iers":4994,"mother":4995,"some":4996,"uit":4997,"vas":4998,"zai":4999}